{
  "version": "1.0",
  "truncation": null,
  "padding": null,
  "added_tokens": [
    {
      "id": 0,
      "content": "<unk>",
      "single_word": false,
      "lstrip": false,
      "rstrip": false,
      "normalized": false,
      "special": true
    },
    {
      "id": 1,
      "content": "<s>",
      "single_word": false,
      "lstrip": false,
      "rstrip": false,
      "normalized": false,
      "special": true
    },
    {
      "id": 2,
      "content": "</s>",
      "single_word": false,
      "lstrip": false,
      "rstrip": false,
      "normalized": false,
      "special": true
    },
    {
      "id": 3,
      "content": "<|im_start|>",
      "single_word": false,
      "lstrip": false,
      "rstrip": false,
      "normalized": false,
      "special": true
    },
    {
      "id": 4,
      "content": "<|im_end|>",
      "single_word": false,
      "lstrip": false,
      "rstrip": false,
      "normalized": false,
      "special": true
    }
  ],
  "normalizer": {
    "type": "NFKC"
  },
  "pre_tokenizer": {
    "type": "ByteLevel",
    "add_prefix_space": false,
    "trim_offsets": true,
    "use_regex": true
  },
  "post_processor": null,
  "decoder": {
    "type": "ByteLevel",
    "add_prefix_space": true,
    "trim_offsets": true,
    "use_regex": true
  },
  "model": {
    "type": "BPE",
    "dropout": null,
    "unk_token": "<unk>",
    "continuing_subword_prefix": null,
    "end_of_word_suffix": null,
    "fuse_unk": false,
    "byte_fallback": false,
    "ignore_merges": false,
    "vocab": {
      "<unk>": 0,
      "<s>": 1,
      "</s>": 2,
      "<|im_start|>": 3,
      "<|im_end|>": 4,
      "!": 5,
      "\"": 6,
      "#": 7,
      "$": 8,
      "%": 9,
      "&": 10,
      "'": 11,
      "(": 12,
      ")": 13,
      "*": 14,
      "+": 15,
      ",": 16,
      "-": 17,
      ".": 18,
      "/": 19,
      "0": 20,
      "1": 21,
      "2": 22,
      "3": 23,
      "4": 24,
      "5": 25,
      "6": 26,
      "7": 27,
      "8": 28,
      "9": 29,
      ":": 30,
      ";": 31,
      "<": 32,
      "=": 33,
      ">": 34,
      "?": 35,
      "@": 36,
      "A": 37,
      "B": 38,
      "C": 39,
      "D": 40,
      "E": 41,
      "F": 42,
      "G": 43,
      "H": 44,
      "I": 45,
      "J": 46,
      "K": 47,
      "L": 48,
      "M": 49,
      "N": 50,
      "O": 51,
      "P": 52,
      "Q": 53,
      "R": 54,
      "S": 55,
      "T": 56,
      "U": 57,
      "V": 58,
      "W": 59,
      "X": 60,
      "Y": 61,
      "Z": 62,
      "[": 63,
      "\\": 64,
      "]": 65,
      "^": 66,
      "_": 67,
      "`": 68,
      "a": 69,
      "b": 70,
      "c": 71,
      "d": 72,
      "e": 73,
      "f": 74,
      "g": 75,
      "h": 76,
      "i": 77,
      "j": 78,
      "k": 79,
      "l": 80,
      "m": 81,
      "n": 82,
      "o": 83,
      "p": 84,
      "q": 85,
      "r": 86,
      "s": 87,
      "t": 88,
      "u": 89,
      "v": 90,
      "w": 91,
      "x": 92,
      "y": 93,
      "z": 94,
      "{": 95,
      "|": 96,
      "}": 97,
      "~": 98,
      "¡": 99,
      "¢": 100,
      "£": 101,
      "¤": 102,
      "¥": 103,
      "¦": 104,
      "§": 105,
      "¨": 106,
      "©": 107,
      "ª": 108,
      "«": 109,
      "¬": 110,
      "®": 111,
      "¯": 112,
      "°": 113,
      "±": 114,
      "²": 115,
      "³": 116,
      "´": 117,
      "µ": 118,
      "¶": 119,
      "·": 120,
      "¸": 121,
      "¹": 122,
      "º": 123,
      "»": 124,
      "¼": 125,
      "½": 126,
      "¾": 127,
      "¿": 128,
      "À": 129,
      "Á": 130,
      "Â": 131,
      "Ã": 132,
      "Ä": 133,
      "Å": 134,
      "Æ": 135,
      "Ç": 136,
      "È": 137,
      "É": 138,
      "Ê": 139,
      "Ë": 140,
      "Ì": 141,
      "Í": 142,
      "Î": 143,
      "Ï": 144,
      "Ð": 145,
      "Ñ": 146,
      "Ò": 147,
      "Ó": 148,
      "Ô": 149,
      "Õ": 150,
      "Ö": 151,
      "×": 152,
      "Ø": 153,
      "Ù": 154,
      "Ú": 155,
      "Û": 156,
      "Ü": 157,
      "Ý": 158,
      "Þ": 159,
      "ß": 160,
      "à": 161,
      "á": 162,
      "â": 163,
      "ã": 164,
      "ä": 165,
      "å": 166,
      "æ": 167,
      "ç": 168,
      "è": 169,
      "é": 170,
      "ê": 171,
      "ë": 172,
      "ì": 173,
      "í": 174,
      "î": 175,
      "ï": 176,
      "ð": 177,
      "ñ": 178,
      "ò": 179,
      "ó": 180,
      "ô": 181,
      "õ": 182,
      "ö": 183,
      "÷": 184,
      "ø": 185,
      "ù": 186,
      "ú": 187,
      "û": 188,
      "ü": 189,
      "ý": 190,
      "þ": 191,
      "ÿ": 192,
      "Ā": 193,
      "ā": 194,
      "Ă": 195,
      "ă": 196,
      "Ą": 197,
      "ą": 198,
      "Ć": 199,
      "ć": 200,
      "Ĉ": 201,
      "ĉ": 202,
      "Ċ": 203,
      "ċ": 204,
      "Č": 205,
      "č": 206,
      "Ď": 207,
      "ď": 208,
      "Đ": 209,
      "đ": 210,
      "Ē": 211,
      "ē": 212,
      "Ĕ": 213,
      "ĕ": 214,
      "Ė": 215,
      "ė": 216,
      "Ę": 217,
      "ę": 218,
      "Ě": 219,
      "ě": 220,
      "Ĝ": 221,
      "ĝ": 222,
      "Ğ": 223,
      "ğ": 224,
      "Ġ": 225,
      "ġ": 226,
      "Ģ": 227,
      "ģ": 228,
      "Ĥ": 229,
      "ĥ": 230,
      "Ħ": 231,
      "ħ": 232,
      "Ĩ": 233,
      "ĩ": 234,
      "Ī": 235,
      "ī": 236,
      "Ĭ": 237,
      "ĭ": 238,
      "Į": 239,
      "į": 240,
      "İ": 241,
      "ı": 242,
      "Ĳ": 243,
      "ĳ": 244,
      "Ĵ": 245,
      "ĵ": 246,
      "Ķ": 247,
      "ķ": 248,
      "ĸ": 249,
      "Ĺ": 250,
      "ĺ": 251,
      "Ļ": 252,
      "ļ": 253,
      "Ľ": 254,
      "ľ": 255,
      "Ŀ": 256,
      "ŀ": 257,
      "Ł": 258,
      "ł": 259,
      "Ń": 260,
      "ä¸": 261,
      "ãĢ": 262,
      "çļ": 263,
      "çļĦ": 264,
      "äº": 265,
      "ãĢĤ": 266,
      "æľ": 267,
      "åı": 268,
      "åħ": 269,
      "ä»": 270,
      "å¤": 271,
      "ãĢģ": 272,
      "å®": 273,
      "åĪ": 274,
      "ä½": 275,
      "è¿": 276,
      "çĶ": 277,
      "åľ": 278,
      "åĲ": 279,
      "åĬ": 280,
      "æĺ": 281,
      "ç»": 282,
      "åĽ": 283,
      "æĸ": 284,
      "æĪ": 285,
      "ä¹": 286,
      "ä¼": 287,
      "ä¸Ģ": 288,
      "å¹": 289,
      "æĺ¯": 290,
      "å°": 291,
      "åŃ": 292,
      "è®": 293,
      "æĹ": 294,
      "åį": 295,
      "âĢ": 296,
      "æľī": 297,
      "å·": 298,
      "è¯": 299,
      "åľ¨": 300,
      "éĩ": 301,
      "æĿ": 302,
      "äºº": 303,
      "åĮ": 304,
      "ä¸į": 305,
      "å¸": 306,
      "åº": 307,
      "ä¸Ń": 308,
      "å¼": 309,
      "æī": 310,
      "éĢ": 311,
      "åĴ": 312,
      "è¡": 313,
      "åĨ": 314,
      "å¾": 315,
      "èĢ": 316,
      "å¯": 317,
      "åĴĮ": 318,
      "åĩ": 319,
      "äºĨ": 320,
      "æĢ": 321,
      "å±": 322,
      "æķ": 323,
      "ĥ½": 324,
      "å¤§": 325,
      "çĽ": 326,
      "æĬ": 327,
      "æ°": 328,
      "è´": 329,
      "ä¸º": 330,
      "ç§": 331,
      "æł": 332,
      "åĽ½": 333,
      "è§": 334,
      "çĶŁ": 335,
      "ä¸ļ": 336,
      "èµ": 337,
      "çī": 338,
      "çİ": 339,
      "è¦": 340,
      "å¥": 341,
      "ä»¥": 342,
      "æĶ": 343,
      "è¦ģ": 344,
      "å¿": 345,
      "éĻ": 346,
      "éĿ": 347,
      "åıĳ": 348,
      "å¹´": 349,
      "èĩ": 350,
      "ä¼ļ": 351,
      "åİ": 352,
      "åŃ¦": 353,
      "æŃ": 354,
      "çĶ¨": 355,
      "çĲ": 356,
      "æ³": 357,
      "çŃ": 358,
      "å½": 359,
      "ä¿": 360,
      "èĥ½": 361,
      "ä¸Ĭ": 362,
      "æ²": 363,
      "ä½ľ": 364,
      "å·¥": 365,
      "éĹ": 366,
      "çº": 367,
      "åĳ": 368,
      "æµ": 369,
      "æİ": 370,
      "ä¸ª": 371,
      "æŀ": 372,
      "æĹ¶": 373,
      "æĪĲ": 374,
      "âĢľ": 375,
      "âĢĿ": 376,
      "åĵ": 377,
      "è¿Ļ": 378,
      "è¡Į": 379,
      "åı¯": 380,
      "é¢": 381,
      "æĪĳ": 382,
      "åĪ°": 383,
      "æ¯": 384,
      "å¯¹": 385,
      "åĩº": 386,
      "æĮ": 387,
      "é«": 388,
      "è¾": 389,
      "éĺ": 390,
      "åŁ": 391,
      "æĥ": 392,
      "çĲĨ": 393,
      "çľ": 394,
      "äºİ": 395,
      "å®¶": 396,
      "é«ĺ": 397,
      "åī": 398,
      "äº§": 399,
      "æĿ¥": 400,
      "åĮĸ": 401,
      "èĤ": 402,
      "å¤ļ": 403,
      "æ±": 404,
      "åľ°": 405,
      "çŃī": 406,
      "æĦ": 407,
      "æĭ": 408,
      "æĸ¹": 409,
      "åĬĽ": 410,
      "åħ¨": 411,
      "åĪĨ": 412,
      "æĸ°": 413,
      "éģ": 414,
      "æĢ§": 415,
      "è¿Ľ": 416,
      "è½": 417,
      "èĩª": 418,
      "ä½ĵ": 419,
      "å»": 420,
      "ä¾": 421,
      "åĬ¨": 422,
      "æ´": 423,
      "ç®": 424,
      "ç«": 425,
      "ç»ı": 426,
      "æ¸": 427,
      "å®ŀ": 428,
      "åħ¬": 429,
      "ä»¬": 430,
      "è¿ĩ": 431,
      "ä¹Ł": 432,
      "çİ°": 433,
      "å¦": 434,
      "éĥ": 435,
      "ç¨": 436,
      "å°±": 437,
      "åĲĪ": 438,
      "éķ": 439,
      "åĲİ": 440,
      "å±ķ": 441,
      "ä¸»": 442,
      "ä¸ĭ": 443,
      "åĵģ": 444,
      "åģ": 445,
      "é£": 446,
      "çĻ": 447,
      "æ¬": 448,
      "éĿ¢": 449,
      "çĤ": 450,
      "æı": 451,
      "éĩį": 452,
      "æĽ": 453,
      "ä»ĸ": 454,
      "å»º": 455,
      "èī": 456,
      "å¥½": 457,
      "å®ļ": 458,
      "åĲĮ": 459,
      "ç½": 460,
      "ä¸İ": 461,
      "æľº": 462,
      "éĥ¨": 463,
      "é¡": 464,
      "è®¾": 465,
      "åĬł": 466,
      "å¿ĥ": 467,
      "æ°´": 468,
      "åº¦": 469,
      "æ³ķ": 470,
      "å¸Ĥ": 471,
      "ç¤": 472,
      "å¼Ģ": 473,
      "èĢĮ": 474,
      "ä¹ĭ": 475,
      "éĽ": 476,
      "èģ": 477,
      "æľ¬": 478,
      "å¢": 479,
      "æĻ": 480,
      "çĹ": 481,
      "åĪ¶": 482,
      "åħ¶": 483,
      "åŃĲ": 484,
      "éĩı": 485,
      "èĢħ": 486,
      "è¶": 487,
      "çĸ": 488,
      "20": 489,
      "åĢ": 490,
      "å¾Ĺ": 491,
      "éķ¿": 492,
      "è·": 493,
      "å¦Ĥ": 494,
      "æıĲ": 495,
      "çī©": 496,
      "ç¬": 497,
      "çŁ": 498,
      "ç¾": 499,
      "åĿ": 500,
      "åĬ¡": 501,
      "æīĢ": 502,
      "åıĬ": 503,
      "è°": 504,
      "æĹ¥": 505,
      "ä¿Ŀ": 506,
      "æ¶": 507,
      "åīį": 508,
      "åħ³": 509,
      "éļ": 510,
      "çĶµ": 511,
      "äºĭ": 512,
      "åºĶ": 513,
      "éĢļ": 514,
      "çĿ": 515,
      "éĥ½": 516,
      "ç®¡": 517,
      "æį": 518,
      "åĨħ": 519,
      "åľº": 520,
      "ç³": 521,
      "ç§į": 522,
      "çł": 523,
      "å°ı": 524,
      "æĸĩ": 525,
      "æľĪ": 526,
      "æķĻ": 527,
      "åĽł": 528,
      "çķ": 529,
      "å§": 530,
      "èµĦ": 531,
      "èĬ": 532,
      "æĥħ": 533,
      "çĦ": 534,
      "ç²": 535,
      "ç©": 536,
      "ç´": 537,
      "èĲ": 538,
      "æĬĢ": 539,
      "ç¨ĭ": 540,
      "åĮº": 541,
      "æľĢ": 542,
      "å¤ĸ": 543,
      "ç§ĳ": 544,
      "å¹³": 545,
      "çĥ": 546,
      "æŁ": 547,
      "éħ": 548,
      "åıĳå±ķ": 549,
      "æĽ´": 550,
      "æ°ĳ": 551,
      "éľ": 552,
      "çĽ®": 553,
      "æľ¯": 554,
      "å¤©": 555,
      "çĽ¸": 556,
      "è´¨": 557,
      "ä½į": 558,
      "å·¥ä½ľ": 559,
      "æĦı": 560,
      "éĹ´": 561,
      "åĳĺ": 562,
      "åħ¥": 563,
      "ä¸ŃåĽ½": 564,
      "Ĥ£": 565,
      "å°Ĩ": 566,
      "å¸¸": 567,
      "æľŁ": 568,
      "ç¡": 569,
      "ä»£": 570,
      "æ¯Ķ": 571,
      "è¡¨": 572,
      "ç±": 573,
      "çĤ¹": 574,
      "ä½¿": 575,
      "ç³»": 576,
      "æĶ¿": 577,
      "å¾Ī": 578,
      "éĶ": 579,
      "å¼º": 580,
      "å®ī": 581,
      "ä¸ī": 582,
      "è¯´": 583,
      "ç¬¬": 584,
      "èĥ": 585,
      "åı¸": 586,
      "è¿ĺ": 587,
      "æ·": 588,
      "éģĵ": 589,
      "çī¹": 590,
      "æ´»": 591,
      "éĩĳ": 592,
      "ä¼ģ": 593,
      "å½ĵ": 594,
      "æŀľ": 595,
      "èµ·": 596,
      "èį": 597,
      "ä»İ": 598,
      "æ²»": 599,
      "æ¬¡": 600,
      "åı¯ä»¥": 601,
      "å¹¶": 602,
      "çĿĢ": 603,
      "æģ": 604,
      "æĺİ": 605,
      "ç¥": 606,
      "æŃ¤": 607,
      "çĦ¶": 608,
      "èĪ": 609,
      "ä½Ĩ": 610,
      "åĪ©": 611,
      "ä¸ĵ": 612,
      "æĪĳä»¬": 613,
      "ä¿¡": 614,
      "ãĢĭ": 615,
      "è®¡": 616,
      "ãĢĬ": 617,
      "éĴ": 618,
      "åĲĦ": 619,
      "åĲį": 620,
      "æĪĸ": 621,
      "åħ¬åı¸": 622,
      "æľį": 623,
      "åŁº": 624,
      "æķ°": 625,
      "é£İ": 626,
      "éĵ": 627,
      "ä¼ģä¸ļ": 628,
      "ç¾İ": 629,
      "æĮģ": 630,
      "äºĽ": 631,
      "éĻ¢": 632,
      "çĹħ": 633,
      "å¼ı": 634,
      "ä¸Ģä¸ª": 635,
      "æĹł": 636,
      "ä½ł": 637,
      "è§£": 638,
      "é¦": 639,
      "çģ": 640,
      "èĤ²": 641,
      "èĭ": 642,
      "æŃ£": 643,
      "è§Ħ": 644,
      "åħļ": 645,
      "è£": 646,
      "ç»ĵ": 647,
      "åķ": 648,
      "éľĢ": 649,
      "è¢": 650,
      "ç¤¾": 651,
      "æº": 652,
      "åĮ»": 653,
      "èī²": 654,
      "éĢł": 655,
      "ç¼": 656,
      "èº": 657,
      "å¯¼": 658,
      "åŀ": 659,
      "äºĮ": 660,
      "åĸ": 661,
      "é¢ĺ": 662,
      "æ¡": 663,
      "ç»Ł": 664,
      "ä»»": 665,
      "åģļ": 666,
      "å£": 667,
      "00": 668,
      "é¡¹": 669,
      "éĩĮ": 670,
      "çĪ": 671,
      "æ±Ĥ": 672,
      "åħ·": 673,
      "æ°Ķ": 674,
      "åĪĽ": 675,
      "æµģ": 676,
      "çľĭ": 677,
      "ç¦": 678,
      "å¤Ħ": 679,
      "åįģ": 680,
      "å¢ŀ": 681,
      "æłĩ": 682,
      "èº«": 683,
      "æĦŁ": 684,
      "è¿Ĳ": 685,
      "èĦ": 686,
      "çĶ±": 687,
      "çłĶ": 688,
      "æķĪ": 689,
      "åħĥ": 690,
      "ç«ĭ": 691,
      "æį®": 692,
      "æİ¥": 693,
      "åİ»": 694,
      "ä¹Ī": 695,
      "æĥ³": 696,
      "æł¡": 697,
      "æł·": 698,
      "ç²¾": 699,
      "ç»Ħ": 700,
      "éĹ®": 701,
      "ç½ĳ": 702,
      "è½¦": 703,
      "ä¼ł": 704,
      "æīĭ": 705,
      "æĸĻ": 706,
      "æĬĢæľ¯": 707,
      "è¢«": 708,
      "åİŁ": 709,
      "èĮ": 710,
      "çĻ½": 711,
      "å·±": 712,
      "çĲĥ": 713,
      "åĲĳ": 714,
      "æ»": 715,
      "éĹ¨": 716,
      "ä»¶": 717,
      "æĢ»": 718,
      "å·²": 719,
      "æ²¡": 720,
      "é¢Ĩ": 721,
      "éª": 722,
      "è¥": 723,
      "å½¢": 724,
      "åıĹ": 725,
      "äº¤": 726,
      "åķĨ": 727,
      "è·¯": 728,
      "èĩªå·±": 729,
      "è¥¿": 730,
      "æµ·": 731,
      "çº§": 732,
      "å¤ĩ": 733,
      "æł¼": 734,
      "åħ±": 735,
      "å½±": 736,
      "åŀĭ": 737,
      "çİ¯": 738,
      "é»": 739,
      "ç±»": 740,
      "çŁ¥": 741,
      "æľįåĬ¡": 742,
      "ä¸¤": 743,
      "åĽ½å®¶": 744,
      "ç®¡çĲĨ": 745,
      "ä¸ĩ": 746,
      "çľģ": 747,
      "ä¼ĺ": 748,
      "éĽĨ": 749,
      "åıĺ": 750,
      "æ£": 751,
      "å°ĳ": 752,
      "åħĪ": 753,
      "åĻ": 754,
      "éĺŁ": 755,
      "éĤ£": 756,
      "åįķ": 757,
      "æİ¨": 758,
      "å±±": 759,
      "è¿Ľè¡Į": 760,
      "é©": 761,
      "å¸Ī": 762,
      "æĶ¹": 763,
      "äº§åĵģ": 764,
      "è°ĥ": 765,
      "èģĶ": 766,
      "èĩ³": 767,
      "çĸĹ": 768,
      "æĶ¶": 769,
      "èİ": 770,
      "ç¤¾ä¼ļ": 771,
      "é£Ł": 772,
      "éĺ²": 773,
      "å¹¿": 774,
      "æ·±": 775,
      "æĬ¥": 776,
      "åı£": 777,
      "ä¹ł": 778,
      "æ®": 779,
      "è¾ĥ": 780,
      "ç¤º": 781,
      "æŀĦ": 782,
      "åıª": 783,
      "å®Į": 784,
      "æ¢": 785,
      "åįĹ": 786,
      "æĮĩ": 787,
      "æºĲ": 788,
      "èĻ": 789,
      "ä¾Ľ": 790,
      "ä¸ĸ": 791,
      "æĶ¾": 792,
      "å»ºè®¾": 793,
      "æ¨": 794,
      "æ³¨": 795,
      "åĻ¨": 796,
      "åıĸ": 797,
      "è®¤": 798,
      "æīį": 799,
      "ä¸ľ": 800,
      "èµĽ": 801,
      "æĸ½": 802,
      "è¾¾": 803,
      "èĲ¥": 804,
      "èĢģ": 805,
      "çº¿": 806,
      "éĢī": 807,
      "ä¹¦": 808,
      "çĥŃ": 809,
      "è£ħ": 810,
      "éĿŀ": 811,
      "å¸¦": 812,
      "èĢĥ": 813,
      "åĮĹ": 814,
      "åŁİ": 815,
      "æ¼": 816,
      "è®©": 817,
      "è®°": 818,
      "èĬĤ": 819,
      "ç¡®": 820,
      "æĪĺ": 821,
      "å®¹": 822,
      "åĽĽ": 823,
      "æ¯ı": 824,
      "ä»·": 825,
      "è¿ĳ": 826,
      "ç¥ŀ": 827,
      "æĿ¡": 828,
      "éĹ®é¢ĺ": 829,
      "è¯ģ": 830,
      "åĪ«": 831,
      "åĩĨ": 832,
      "çķĮ": 833,
      "åı°": 834,
      "åħī": 835,
      "æīĵ": 836,
      "ç´ł": 837,
      "æµİ": 838,
      "åĨ³": 839,
      "æķĻèĤ²": 840,
      "è±": 841,
      "æĺĵ": 842,
      "æĬ¤": 843,
      "å¢ĥ": 844,
      "äºĶ": 845,
      "åĽ¢": 846,
      "æ²¡æľī": 847,
      "å§Ķ": 848,
      "çĽ´": 849,
      "çĬ": 850,
      "æŃ¥": 851,
      "æķ´": 852,
      "èħ": 853,
      "å²": 854,
      "çľŁ": 855,
      "ä½İ": 856,
      "æ¸ħ": 857,
      "201": 858,
      "å¥³": 859,
      "åĽŀ": 860,
      "åĬŁ": 861,
      "ä¹ī": 862,
      "è§Ĥ": 863,
      "çħ": 864,
      "åĶ": 865,
      "æĬĬ": 866,
      "å±Ģ": 867,
      "æĢĿ": 868,
      "æĶ¯": 869,
      "ä½¿çĶ¨": 870,
      "èģĮ": 871,
      "åħ»": 872,
      "åĬŀ": 873,
      "æĬķ": 874,
      "ç»Ļ": 875,
      "éľĢè¦ģ": 876,
      "æĿĲ": 877,
      "çĶŁäº§": 878,
      "ç©¶": 879,
      "éĻħ": 880,
      "æĪ·": 881,
      "åĭ": 882,
      "å¼ķ": 883,
      "ç»ıæµİ": 884,
      "åĬ©": 885,
      "è´¹": 886,
      "å®ĥ": 887,
      "å¤´": 888,
      "èį¯": 889,
      "åĮħ": 890,
      "å¸Ĥåľº": 891,
      "è§Ĩ": 892,
      "æ¶Ī": 893,
      "ç©º": 894,
      "é¥": 895,
      "æģ¯": 896,
      "ç»´": 897,
      "ç§¯": 898,
      "è¯¥": 899,
      "çİĩ": 900,
      "è¨": 901,
      "æł¹": 902,
      "è¯Ĩ": 903,
      "åıĤ": 904,
      "å°±æĺ¯": 905,
      "éĢļè¿ĩ": 906,
      "å¤į": 907,
      "å¸ĥ": 908,
      "ä»Ĭ": 909,
      "å®¢": 910,
      "èĩ´": 911,
      "éĢŁ": 912,
      "èı": 913,
      "æĤ£": 914,
      "åĨį": 915,
      "éĩįè¦ģ": 916,
      "ä¸ĵä¸ļ": 917,
      "å¿«": 918,
      "æĸ¯": 919,
      "è®®": 920,
      "åĦ": 921,
      "æĢģ": 922,
      "æŀģ": 923,
      "éªĮ": 924,
      "å¿ħ": 925,
      "è´£": 926,
      "åįĩ": 927,
      "åįİ": 928,
      "åĿļ": 929,
      "æŁ¥": 930,
      "è½¬": 931,
      "è®º": 932,
      "Ġ,": 933,
      "ç»Ń": 934,
      "çı": 935,
      "çĶŁæ´»": 936,
      "åİĨ": 937,
      "æĸŃ": 938,
      "æĤ": 939,
      "èĬ±": 940,
      "å¡": 941,
      "è¶Ĭ": 942,
      "çłĶç©¶": 943,
      "å¦Ĥæŀľ": 944,
      "åĳ½": 945,
      "éĻĲ": 946,
      "è¶³": 947,
      "ä¸»è¦ģ": 948,
      "æİ§": 949,
      "åıį": 950,
      "è§ģ": 951,
      "åģ¥": 952,
      "10": 953,
      "åĵį": 954,
      "æħ": 955,
      "æ¹": 956,
      "åĨµ": 957,
      "æ¨¡": 958,
      "å®īåħ¨": 959,
      "è¯Ŀ": 960,
      "æĹ¶éĹ´": 961,
      "éŁ": 962,
      "çĪ±": 963,
      "èĮĥ": 964,
      "å¾·": 965,
      "æ¸©": 966,
      "æĸĩåĮĸ": 967,
      "æ£Ģ": 968,
      "ä¸Ķ": 969,
      "å¹²": 970,
      "æ¸¸": 971,
      "é¡¹çĽ®": 972,
      "ä½ķ": 973,
      "è¯ķ": 974,
      "ä»ĸä»¬": 975,
      "èĳ": 976,
      "çļĦäºº": 977,
      "ç¢": 978,
      "è¶ħ": 979,
      "éĢĤ": 980,
      "åİĭ": 981,
      "çĭ": 982,
      "æĿĥ": 983,
      "èīº": 984,
      "å·¥ç¨ĭ": 985,
      "èŀ": 986,
      "é¦ĸ": 987,
      "å·ŀ": 988,
      "åĨľ": 989,
      "åĢ¼": 990,
      "éĩĩ": 991,
      "åŃĹ": 992,
      "åĨĽ": 993,
      "æĸ¹éĿ¢": 994,
      "éļ¾": 995,
      "èİ·": 996,
      "åŁŁ": 997,
      "åĪĻ": 998,
      "ç§°": 999,
      "ç»ĩ": 1000,
      "åĬ¿": 1001,
      "ä»Ģ": 1002,
      "å§ĭ": 1003,
      "çª": 1004,
      "åº·": 1005,
      "åĦ¿": 1006,
      "æ²¹": 1007,
      "æİĴ": 1008,
      "è¿Ļä¸ª": 1009,
      "åĳĬ": 1010,
      "åıĪ": 1011,
      "æ¡Ī": 1012,
      "æ²»çĸĹ": 1013,
      "åı²": 1014,
      "æµĭ": 1015,
      "æľª": 1016,
      "åħĭ": 1017,
      "åŃĺ": 1018,
      "âĢĿ,": 1019,
      "éħį": 1020,
      "çĬ¶": 1021,
      "è®¾è®¡": 1022,
      "è¡Įä¸ļ": 1023,
      "æ±Ł": 1024,
      "ä¸¥": 1025,
      "åŁ¹": 1026,
      "éĻ¤": 1027,
      "åĳ¨": 1028,
      "åı¯èĥ½": 1029,
      "æĺ¾": 1030,
      "çļ®": 1031,
      "ä¼Ĺ": 1032,
      "æıĲä¾Ľ": 1033,
      "è¡Ģ": 1034,
      "è¦ģæ±Ĥ": 1035,
      "åħ·æľī": 1036,
      "è´¨éĩı": 1037,
      "åĪĩ": 1038,
      "ä¸ĸçķĮ": 1039,
      "æĪ¿": 1040,
      "å½±åĵį": 1041,
      "19": 1042,
      "å¥½çļĦ": 1043,
      "äººæ°ĳ": 1044,
      "åĢĻ": 1045,
      "æľĽ": 1046,
      "âĢĶ": 1047,
      "ä¾¿": 1048,
      "ä»Ģä¹Ī": 1049,
      "ç³»ç»Ł": 1050,
      "åĪĴ": 1051,
      "ä¹Ĳ": 1052,
      "çīĩ": 1053,
      "åŃ¦çĶŁ": 1054,
      "é©¬": 1055,
      "åĲĮæĹ¶": 1056,
      "çİ¯å¢ĥ": 1057,
      "åįı": 1058,
      "ç±³": 1059,
      "ç«Ļ": 1060,
      "ç»Ĩ": 1061,
      "èĲ½": 1062,
      "å¥¹": 1063,
      "å±Ĥ": 1064,
      "æĥħåĨµ": 1065,
      "åĽłä¸º": 1066,
      "çģ«": 1067,
      "åľŁ": 1068,
      "åŃ¦ä¹ł": 1069,
      "æīĢä»¥": 1070,
      "çº¦": 1071,
      "äº¬": 1072,
      "é¾": 1073,
      "æ´»åĬ¨": 1074,
      "çĮ": 1075,
      "äº§ä¸ļ": 1076,
      "éĻį": 1077,
      "éĿĴ": 1078,
      "å°Ķ": 1079,
      "èŀį": 1080,
      "åĩł": 1081,
      "çĽĳ": 1082,
      "æĴ": 1083,
      "æļ": 1084,
      "èĥ½åĬĽ": 1085,
      "ç»Ħç»ĩ": 1086,
      "èµ°": 1087,
      "å£«": 1088,
      "çŁ³": 1089,
      "éĶĢ": 1090,
      "ãĢĤâĢĿ": 1091,
      "åĪĽæĸ°": 1092,
      "æĿĳ": 1093,
      "è±¡": 1094,
      "åį³": 1095,
      "è®¾å¤ĩ": 1096,
      "çħ§": 1097,
      "ç¦»": 1098,
      "æĤ£èĢħ": 1099,
      "å±ŀ": 1100,
      "æıĲé«ĺ": 1101,
      "æĺ¯ä¸Ģ": 1102,
      "æ»¡": 1103,
      "éļı": 1104,
      "ä»¥åıĬ": 1105,
      "åħħ": 1106,
      "å¤±": 1107,
      "çīĮ": 1108,
      "æ¥": 1109,
      "æ®µ": 1110,
      "çĽĬ": 1111,
      "æł¸": 1112,
      "æĳ": 1113,
      "æ¼Ķ": 1114,
      "å¼ł": 1115,
      "æī¿": 1116,
      "å¾Ģ": 1117,
      "éĿ©": 1118,
      "ä»ħ": 1119,
      "åĸĦ": 1120,
      "çº¢": 1121,
      "èī¯": 1122,
      "çļĦä¸Ģ": 1123,
      "å¨": 1124,
      "åĪĹ": 1125,
      "æĿ¿": 1126,
      "åħį": 1127,
      "åºľ": 1128,
      "ä½ľä¸º": 1129,
      "å¯Į": 1130,
      "ä¿¡æģ¯": 1131,
      "åĥ": 1132,
      "å¤ª": 1133,
      "å®¤": 1134,
      "ç½®": 1135,
      "å¤§çļĦ": 1136,
      "äººåĳĺ": 1137,
      "ä¾ĭ": 1138,
      "çĻ¾": 1139,
      "é¢Ħ": 1140,
      "æŀĹ": 1141,
      "ä¸įåĲĮ": 1142,
      "åĽŃ": 1143,
      "æĵ": 1144,
      "çİĭ": 1145,
      "ä¾Ŀ": 1146,
      "å¿Ĺ": 1147,
      "æ¿": 1148,
      "æĻ¯": 1149,
      "äº¿": 1150,
      "ä¸Ńå¿ĥ": 1151,
      "çŃĸ": 1152,
      "æĻº": 1153,
      "å¤Ł": 1154,
      "åŃ¦æł¡": 1155,
      "éĤ": 1156,
      "è¯Ħ": 1157,
      "è¿Ļæł·": 1158,
      "å¾Īå¤ļ": 1159,
      "äºļ": 1160,
      "åŃ©": 1161,
      "è¨Ģ": 1162,
      "è´Ł": 1163,
      "äººçļĦ": 1164,
      "ä½ľçĶ¨": 1165,
      "åĩı": 1166,
      "ä¸ŃçļĦ": 1167,
      "æĪĲä¸º": 1168,
      "äºī": 1169,
      "åł": 1170,
      "ç²¾ç¥ŀ": 1171,
      "åĽ´": 1172,
      "åĽ½éĻħ": 1173,
      "ä¿®": 1174,
      "åĽ¾": 1175,
      "éĻ©": 1176,
      "è®¸": 1177,
      "ä½ı": 1178,
      "æĲ": 1179,
      "å¿µ": 1180,
      "æ²³": 1181,
      "åı·": 1182,
      "åıĭ": 1183,
      "ä¹Łæĺ¯": 1184,
      "è¿ŀ": 1185,
      "æĹ©": 1186,
      "éĿŀå¸¸": 1187,
      "æĭ©": 1188,
      "åĩºçİ°": 1189,
      "ç¾¤": 1190,
      "éĺ³": 1191,
      "åĲ«": 1192,
      "åı¤": 1193,
      "æĮī": 1194,
      "é»Ħ": 1195,
      "æĶ¿åºľ": 1196,
      "å¾ĭ": 1197,
      "ä»½": 1198,
      "è¿ĻäºĽ": 1199,
      "æĻ®": 1200,
      "è¿ľ": 1201,
      "ç§ĳåŃ¦": 1202,
      "åıĮ": 1203,
      "ç»Ī": 1204,
      "éħĴ": 1205,
      "åħ¨åĽ½": 1206,
      "åĲĥ": 1207,
      "å¤ĦçĲĨ": 1208,
      "åİ¿": 1209,
      "ä¸Ģå®ļ": 1210,
      "å·²ç»ı": 1211,
      "âĢĿãĢĤ": 1212,
      "ç®Ĺ": 1213,
      "åĿĩ": 1214,
      "ç§ĳæĬĢ": 1215,
      "ä¸ĢäºĽ": 1216,
      "ç¬¬ä¸Ģ": 1217,
      "å®ŀçİ°": 1218,
      "åģ¥åº·": 1219,
      "æĭī": 1220,
      "çĽ¸åħ³": 1221,
      "èª": 1222,
      "å¯Ĩ": 1223,
      "éĢīæĭ©": 1224,
      "çĹĩ": 1225,
      "åĲĪä½ľ": 1226,
      "è´¢": 1227,
      "èĪ¬": 1228,
      "èĤ¡": 1229,
      "è®²": 1230,
      "è§Ĵ": 1231,
      "æ¿Ģ": 1232,
      "å¯¹äºİ": 1233,
      "çĨ": 1234,
      "äºĴ": 1235,
      "åħ´": 1236,
      "è§ī": 1237,
      "æĿĲæĸĻ": 1238,
      "å¤§åŃ¦": 1239,
      "æĿİ": 1240,
      "å®³": 1241,
      "æĹ¶åĢĻ": 1242,
      "ä¸įæĺ¯": 1243,
      "éĴ¢": 1244,
      "è¯Ń": 1245,
      "ä½Ĩæĺ¯": 1246,
      "è®Ń": 1247,
      "æĹı": 1248,
      "èĩªå·±çļĦ": 1249,
      "è¯·": 1250,
      "åĽłæŃ¤": 1251,
      "è¿ĩç¨ĭ": 1252,
      "çĽ®åīį": 1253,
      "éĵ¶": 1254,
      "æľ¨": 1255,
      "åĲ¸": 1256,
      "åħ¶ä»ĸ": 1257,
      "åĥı": 1258,
      "æĬķèµĦ": 1259,
      "åĪĿ": 1260,
      "æķħ": 1261,
      "12": 1262,
      "æŁĵ": 1263,
      "ç¡Ģ": 1264,
      "ä¸įæĸŃ": 1265,
      "æł¹æį®": 1266,
      "åŁºç¡Ģ": 1267,
      "åĶ®": 1268,
      "å¾®": 1269,
      "åıĳçĶŁ": 1270,
      "ä»¥ä¸Ĭ": 1271,
      "çŃĳ": 1272,
      "é¡»": 1273,
      "åŁİå¸Ĥ": 1274,
      "æī¹": 1275,
      "åĤ": 1276,
      "åŃ©åŃĲ": 1277,
      "åĪ°äºĨ": 1278,
      "ä¸įèĥ½": 1279,
      "çĵ": 1280,
      "çľ¼": 1281,
      "æłĩåĩĨ": 1282,
      "èĭ±": 1283,
      "ç¨³": 1284,
      "éħ¸": 1285,
      "æĸ¹å¼ı": 1286,
      "è½»": 1287,
      "éŁ³": 1288,
      "ç¦ı": 1289,
      "åħ¶ä¸Ń": 1290,
      "å¤§å®¶": 1291,
      "åŃ£": 1292,
      "æ¬¾": 1293,
      "æ¤": 1294,
      "å©": 1295,
      "èŃ": 1296,
      "ä¸¾": 1297,
      "éĥ¨åĪĨ": 1298,
      "çĸ«": 1299,
      "èĴ": 1300,
      "é¦Ļ": 1301,
      "åĮ»éĻ¢": 1302,
      "è¡¨ç¤º": 1303,
      "åºĶçĶ¨": 1304,
      "ĠãĢĤ": 1305,
      "å°½": 1306,
      "è¾¹": 1307,
      "åī¯": 1308,
      "æŃ¢": 1309,
      "çĶ·": 1310,
      "åĳ³": 1311,
      "èĨ": 1312,
      "åįķä½į": 1313,
      "çļĦæĺ¯": 1314,
      "ä»ĭ": 1315,
      "éļľ": 1316,
      "å±ħ": 1317,
      "éĵģ": 1318,
      "æĭ¬": 1319,
      "æĸ¹æ³ķ": 1320,
      "åīĤ": 1321,
      "ä¸»ä¹ī": 1322,
      "11": 1323,
      "æľīéĻĲ": 1324,
      "åİĤ": 1325,
      "200": 1326,
      "éĥ¨éĹ¨": 1327,
      "èĥ½å¤Ł": 1328,
      "çĻ½çĻ": 1329,
      "ľé£İ": 1330,
      "æķ°æį®": 1331,
      "åºķ": 1332,
      "ç£": 1333,
      "æĬĹ": 1334,
      "åįĬ": 1335,
      "ä¸ĢèĪ¬": 1336,
      "èµĦæºĲ": 1337,
      "å¸Į": 1338,
      "å¼Ģå§ĭ": 1339,
      "çĻ½çĻľé£İ": 1340,
      "éĥ½æĺ¯": 1341,
      "çķ¥": 1342,
      "åħ¨éĿ¢": 1343,
      "æ±½": 1344,
      "å®Ŀ": 1345,
      "åİĨåı²": 1346,
      "çł´": 1347,
      "çªģ": 1348,
      "æ½": 1349,
      "å®ĺ": 1350,
      "çıŃ": 1351,
      "é¾Ļ": 1352,
      "çºª": 1353,
      "èģļ": 1354,
      "ç®Ģ": 1355,
      "éĽĨåĽ¢": 1356,
      "åħ«": 1357,
      "å»ºçŃĳ": 1358,
      "åį«": 1359,
      "æ¶²": 1360,
      "å®¡": 1361,
      "åĮħæĭ¬": 1362,
      "è¡¥": 1363,
      "é²": 1364,
      "å·¥ä¸ļ": 1365,
      "æľºæŀĦ": 1366,
      ":âĢľ": 1367,
      "çĩ": 1368,
      "è¿Ļç§į": 1369,
      "å¥ĸ": 1370,
      "åĸľ": 1371,
      "æ°´å¹³": 1372,
      "ä¿ĥ": 1373,
      "å®£": 1374,
      "è¾ĵ": 1375,
      "ä¼¤": 1376,
      "å£°": 1377,
      "ä»£è¡¨": 1378,
      "ç½Ĺ": 1379,
      "å¼Ģå±ķ": 1380,
      "äº²": 1381,
      "çĶ±äºİ": 1382,
      "æĭħ": 1383,
      "èĹ": 1384,
      "åį´": 1385,
      "æĽ¾": 1386,
      "åĬŁèĥ½": 1387,
      "æ³¨æĦı": 1388,
      "è¯¾": 1389,
      "æĪĳåĽ½": 1390,
      "ç§¯æŀģ": 1391,
      "èİ·å¾Ĺ": 1392,
      "å¿ħé¡»": 1393,
      "ç¼º": 1394,
      "åĨ·": 1395,
      "åĿļæĮģ": 1396,
      "ç¾İåĽ½": 1397,
      "æĺŁ": 1398,
      "åį°": 1399,
      "åı¦": 1400,
      "åĮĹäº¬": 1401,
      "15": 1402,
      "æŀĲ": 1403,
      "çİ°åľ¨": 1404,
      "çĸ¾": 1405,
      "æĪĸèĢħ": 1406,
      "é¢ĨåŁŁ": 1407,
      "é¢Ĩå¯¼": 1408,
      "å·´": 1409,
      "åįļ": 1410,
      "æ¯Ĵ": 1411,
      "åľ°åĮº": 1412,
      "çĶ»": 1413,
      "åī§": 1414,
      "å·®": 1415,
      "æī§": 1416,
      "å¸®": 1417,
      "ç¿": 1418,
      "æ±¡": 1419,
      "ä¸ĢæŃ¥": 1420,
      "ä¿ĿæĬ¤": 1421,
      "30": 1422,
      "éĨ": 1423,
      "æĹħ": 1424,
      "åħŃ": 1425,
      "çķĻ": 1426,
      "ç»ĵæŀĦ": 1427,
      "é¸": 1428,
      "äºĳ": 1429,
      "ç»¼": 1430,
      "åĬ³": 1431,
      "æĺ¥": 1432,
      "çĭ¬": 1433,
      "å¢ŀéķ¿": 1434,
      "ä¸´": 1435,
      "åĬłå¼º": 1436,
      "ç»§": 1437,
      "è´Ń": 1438,
      "202": 1439,
      "äºĨè§£": 1440,
      "å¢ŀåĬł": 1441,
      "æ¸¯": 1442,
      "åĽº": 1443,
      "æİ§åĪ¶": 1444,
      "é»ĳ": 1445,
      "æ¯Ķè¾ĥ": 1446,
      "æıĲåįĩ": 1447,
      "å®¢æĪ·": 1448,
      "ç´§": 1449,
      "ä½Ļ": 1450,
      "æ¹ĸ": 1451,
      "éĢģ": 1452,
      "é¥®": 1453,
      "è´§": 1454,
      "è§Ħå®ļ": 1455,
      "å®ĮæĪĲ": 1456,
      "ç¨İ": 1457,
      "å½¢æĪĲ": 1458,
      "çĶ³": 1459,
      "æĹ¶ä»£": 1460,
      "åħ³ç³»": 1461,
      "å¾ħ": 1462,
      "å¼Ĥ": 1463,
      "æĶ¹éĿ©": 1464,
      "éº": 1465,
      "åįĥ": 1466,
      "ç¬¬äºĮ": 1467,
      "æ¦": 1468,
      "çİ°ä»£": 1469,
      "èĳĹ": 1470,
      "ä¹¡": 1471,
      "åįł": 1472,
      "èĢĲ": 1473,
      "ç¯": 1474,
      "è¿ĺæĺ¯": 1475,
      "ä¸°": 1476,
      "å¹´çļĦ": 1477,
      "éĤ£ä¹Ī": 1478,
      "æľīéĻĲåħ¬åı¸": 1479,
      "æĶ¿æ²»": 1480,
      "ä¸įä¼ļ": 1481,
      "æŃ¦": 1482,
      "ç«ŀ": 1483,
      "åĵģçīĮ": 1484,
      "æĶ¿çŃĸ": 1485,
      "éķĩ": 1486,
      "çĤİ": 1487,
      "ĠãĢģ": 1488,
      "è´£ä»»": 1489,
      "åıĳçİ°": 1490,
      "å¹³åı°": 1491,
      "æ¬¢": 1492,
      "åĪĨæŀĲ": 1493,
      "ä¸ĬçļĦ": 1494,
      "åį¡": 1495,
      "åĪ»": 1496,
      "çº³": 1497,
      "ç»¿": 1498,
      "åŁºæľ¬": 1499,
      "åºĹ": 1500,
      "èĢĮä¸Ķ": 1501,
      "æįŁ": 1502,
      "æľīæķĪ": 1503,
      "å¤®": 1504,
      "ä¸ªäºº": 1505,
      "åĲĦç§į": 1506,
      "åı¥": 1507,
      "æ³¢": 1508,
      "åº§": 1509,
      "å¸ĮæľĽ": 1510,
      "åĩ»": 1511,
      "æĸ°çļĦ": 1512,
      "å¯¼èĩ´": 1513,
      "æĮ¥": 1514,
      "äº§çĶŁ": 1515,
      "æŁĲ": 1516,
      "éģ¿": 1517,
      "åĨħå®¹": 1518,
      "é¢Ŀ": 1519,
      "éľĢæ±Ĥ": 1520,
      "é¼": 1521,
      "è§£åĨ³": 1522,
      "çŁŃ": 1523,
      "çĤº": 1524,
      "ç»¼åĲĪ": 1525,
      "æ¯į": 1526,
      "ç»Ŀ": 1527,
      "ç»ıèĲ¥": 1528,
      "ä¼łç»Ł": 1529,
      "åħ°": 1530,
      "è®¤ä¸º": 1531,
      "æĢĿæĥ³": 1532,
      "åĽ½åĨħ": 1533,
      "å¾ģ": 1534,
      "æĿ¥çļĦ": 1535,
      "èīºæľ¯": 1536,
      "æĽ´åĬł": 1537,
      "äººæīį": 1538,
      "åĲ¦": 1539,
      "å¼Ģåıĳ": 1540,
      "åĪ©çĶ¨": 1541,
      "ç»ľ": 1542,
      "åĪ¶éĢł": 1543,
      "ä½ĵç³»": 1544,
      "éĺ¿": 1545,
      "æī¾": 1546,
      "èĥľ": 1547,
      "éĴŁ": 1548,
      "é¢ĳ": 1549,
      "åŃ¦éĻ¢": 1550,
      "æ°§": 1551,
      "çīĪ": 1552,
      "çŁ¥è¯Ĩ": 1553,
      "èĻ½": 1554,
      "å®¹æĺĵ": 1555,
      "èģĮä¸ļ": 1556,
      "ä¸ļåĬ¡": 1557,
      "æ¬§": 1558,
      "è¿Ļä¸Ģ": 1559,
      "å¯Ł": 1560,
      "ç§»": 1561,
      "å²ģ": 1562,
      "çĸ¾çĹħ": 1563,
      "æ±½è½¦": 1564,
      ",âĢľ": 1565,
      "æĦ¿": 1566,
      "èıľ": 1567,
      "äºĨä¸Ģ": 1568,
      "åĨł": 1569,
      "åĲ¬": 1570,
      "å½ķ": 1571,
      "éĢłæĪĲ": 1572,
      "æŃ»": 1573,
      "å®ŀæĸ½": 1574,
      "åĪ¶åº¦": 1575,
      "ä¸ºäºĨ": 1576,
      "ç§Ģ": 1577,
      "åŃĺåľ¨": 1578,
      "æłĳ": 1579,
      "),": 1580,
      "ç¼ĸ": 1581,
      "éĩĩçĶ¨": 1582,
      "ä¼ļè®®": 1583,
      "æİ¨è¿Ľ": 1584,
      "æĭ¥": 1585,
      "ä¿ĿæĮģ": 1586,
      "ä¸įä»ħ": 1587,
      "æľīåħ³": 1588,
      "åºŃ": 1589,
      "æ¤į": 1590,
      "ä»¤": 1591,
      "æİ¨åĬ¨": 1592,
      "èĩªçĦ¶": 1593,
      "çī¹åĪ«": 1594,
      "çļĦæĹ¶åĢĻ": 1595,
      "çĶ¨äºİ": 1596,
      "éĩįçĤ¹": 1597,
      "è¯»": 1598,
      "æĶ¯æĮģ": 1599,
      "æį¢": 1600,
      "æ¶Īè´¹": 1601,
      "èĭı": 1602,
      "åį±": 1603,
      "æ±ī": 1604,
      "ä¹ĭåĲİ": 1605,
      "å°Ħ": 1606,
      "çī¹èī²": 1607,
      "åĨĻ": 1608,
      "åľ°æĸ¹": 1609,
      "èĪª": 1610,
      "åħļçļĦ": 1611,
      "åĵª": 1612,
      "ä»ª": 1613,
      "æīĢæľī": 1614,
      "æĴŃ": 1615,
      "éĢĲ": 1616,
      "çĮ®": 1617,
      "çĶ²": 1618,
      "å¦Ĥä½ķ": 1619,
      "çŁ¥éģĵ": 1620,
      "è¿°": 1621,
      "æķĪæŀľ": 1622,
      "çĹĽ": 1623,
      "é£Łåĵģ": 1624,
      "çĽ®æłĩ": 1625,
      "åºĶè¯¥": 1626,
      "æķĻåŃ¦": 1627,
      "ä¹¦è®°": 1628,
      "æĿ¡ä»¶": 1629,
      "éģĩ": 1630,
      "æĤ¨": 1631,
      "åı³": 1632,
      "çīĽ": 1633,
      "æĸĹ": 1634,
      "ç«ł": 1635,
      "è¾¾åĪ°": 1636,
      "å»ºç«ĭ": 1637,
      "ãĢĮ": 1638,
      "æĩ": 1639,
      "Â·": 1640,
      "100": 1641,
      "ä¸Ńå¤®": 1642,
      "èįī": 1643,
      "è¿Ľä¸ĢæŃ¥": 1644,
      "æ´²": 1645,
      "ç½ĳç»ľ": 1646,
      "è´Łè´£": 1647,
      "æľĥ": 1648,
      "ç«¯": 1649,
      "åĮ»çĸĹ": 1650,
      "æĭĽ": 1651,
      "è¿ĺæľī": 1652,
      "é¤": 1653,
      "æ´Ĺ": 1654,
      "ä¸Ĭæµ·": 1655,
      "å®ŀéĻħ": 1656,
      "äº¿åħĥ": 1657,
      "èĮ¶": 1658,
      "å¡ĳ": 1659,
      "æĢİ": 1660,
      "ç²ī": 1661,
      "åĩĢ": 1662,
      "æĵį": 1663,
      "å·¦": 1664,
      "çĶļ": 1665,
      "è¯Ĭ": 1666,
      "ãĢį": 1667,
      "ä¸įè¦ģ": 1668,
      "âĢĶâĢĶ": 1669,
      "åºı": 1670,
      "ç»ĵåĲĪ": 1671,
      "ç»į": 1672,
      "æĿ¥è¯´": 1673,
      "åĬª": 1674,
      "%,": 1675,
      "èĽ": 1676,
      "ä¹ħ": 1677,
      "è¿ĲåĬ¨": 1678,
      "æĪı": 1679,
      "ä¹Ŀ": 1680,
      "èº«ä½ĵ": 1681,
      "ä»į": 1682,
      "å®Ī": 1683,
      "ä¿Ŀéļľ": 1684,
      "èĤī": 1685,
      "è·µ": 1686,
      "æıĲåĩº": 1687,
      "è½®": 1688,
      "å³": 1689,
      "è²": 1690,
      "å°¼": 1691,
      "æ¢¦": 1692,
      "ç»ĥ": 1693,
      "è¿Ļæĺ¯": 1694,
      "åĳ¢": 1695,
      "å¤«": 1696,
      "ä¸Ģèµ·": 1697,
      "ä»·æł¼": 1698,
      "18": 1699,
      "åıĸå¾Ĺ": 1700,
      "åĽ°": 1701,
      "50": 1702,
      "åİŁåĽł": 1703,
      "å½©": 1704,
      "æ¢°": 1705,
      "ä¼¼": 1706,
      "åŁ¹åħ»": 1707,
      "ä¸ĥ": 1708,
      "ä¹ĭä¸Ģ": 1709,
      "äººä»¬": 1710,
      "é¡º": 1711,
      "éĺ¶": 1712,
      "å±Ĭ": 1713,
      "ä»·åĢ¼": 1714,
      "èĤ¤": 1715,
      "èŃ¦": 1716,
      "åŃķ": 1717,
      "å¸®åĬ©": 1718,
      "ä¹°": 1719,
      "æĮģç»Ń": 1720,
      "åª": 1721,
      "éĸ": 1722,
      "ä¼ĺåĬ¿": 1723,
      "é£ŀ": 1724,
      "æİĪ": 1725,
      "æĪĺçķ¥": 1726,
      "é¦Ĩ": 1727,
      "ä¿ĥè¿Ľ": 1728,
      "å¥Ĺ": 1729,
      "æĢ¥": 1730,
      "åŁ¹è®Ń": 1731,
      "æĻĤ": 1732,
      "çĻ»": 1733,
      "éĴĪ": 1734,
      "èĸ": 1735,
      "æķ£": 1736,
      "çĴ": 1737,
      "éĩĳèŀį": 1738,
      "éĻĪ": 1739,
      "æ¯ĶèµĽ": 1740,
      "ç´¢": 1741,
      "æİª": 1742,
      "åĬªåĬĽ": 1743,
      "åħ¨çĲĥ": 1744,
      "è¿½": 1745,
      "åħ¸": 1746,
      "æķĻå¸Ī": 1747,
      "è·Ł": 1748,
      "æĽ´å¤ļ": 1749,
      "çĽ´æİ¥": 1750,
      "æĭ¥æľī": 1751,
      "éĿł": 1752,
      "éĴ±": 1753,
      "çĿ£": 1754,
      "èĻ½çĦ¶": 1755,
      "å®ģ": 1756,
      "ç»©": 1757,
      "éĢı": 1758,
      "éĢĢ": 1759,
      "åģľ": 1760,
      "èĵ": 1761,
      "éĶĢåĶ®": 1762,
      "éļıçĿĢ": 1763,
      "ç¨³å®ļ": 1764,
      "è¿Ľåħ¥": 1765,
      "æĪĲåĬŁ": 1766,
      "ä»ĭç»į": 1767,
      "åºĬ": 1768,
      "å§Ķåĳĺ": 1769,
      "çµ": 1770,
      "æī©": 1771,
      "æİ¢": 1772,
      "æĻļ": 1773,
      "è½¯": 1774,
      "çĶŁæĢģ": 1775,
      "èĥ¶": 1776,
      "èıĮ": 1777,
      "åıªæľī": 1778,
      "é½": 1779,
      "åĨ²": 1780,
      "æħ¢": 1781,
      "æ°ĳæĹı": 1782,
      "æĻºèĥ½": 1783,
      "èĭ¦": 1784,
      "äºĪ": 1785,
      "æ£ĢæŁ¥": 1786,
      "å¸Ń": 1787,
      "äºĭä¸ļ": 1788,
      "åıĤåĬł": 1789,
      "è®¡åĪĴ": 1790,
      "å»¶": 1791,
      "16": 1792,
      "åıĬæĹ¶": 1793,
      "åħħåĪĨ": 1794,
      "çļĦåıĳå±ķ": 1795,
      "çĶµåŃĲ": 1796,
      "æĶ»": 1797,
      "è´µ": 1798,
      "åħ±åĲĮ": 1799,
      "æ³Ľ": 1800,
      "éĶ®": 1801,
      "èį£": 1802,
      "ä»ĺ": 1803,
      "æīĺ": 1804,
      "åıĳæĮ¥": 1805,
      "éĶĻ": 1806,
      "ä»»ä½ķ": 1807,
      "åİļ": 1808,
      "ä¹ĭéĹ´": 1809,
      "å¥ĩ": 1810,
      "ä»Ĭå¹´": 1811,
      "è§ĦåĪĴ": 1812,
      "æĢ§èĥ½": 1813,
      "æĬ¥åĳĬ": 1814,
      "åĬłå·¥": 1815,
      "ä¸ĢçĽ´": 1816,
      "çĶļèĩ³": 1817,
      "èĦ±": 1818,
      "äº¤éĢļ": 1819,
      "æĮīçħ§": 1820,
      "æĢ§çļĦ": 1821,
      "å¥ĭ": 1822,
      "è¿ĩç¨ĭä¸Ń": 1823,
      "éŃ": 1824,
      "ç¶": 1825,
      "å¾ĹåĪ°": 1826,
      "çĨŁ": 1827,
      "åģĩ": 1828,
      "éĽ¨": 1829,
      "åºĨ": 1830,
      "14": 1831,
      "åĪĨéĴŁ": 1832,
      "ç»§ç»Ń": 1833,
      "æĪĲæľ¬": 1834,
      "éģ¿åħį": 1835,
      "å¨ģ": 1836,
      "èĲ½å®ŀ": 1837,
      "çĶ¨æĪ·": 1838,
      "è½½": 1839,
      "å®ĮåĸĦ": 1840,
      "æĢĢ": 1841,
      "æīįèĥ½": 1842,
      "ä¸¥éĩį": 1843,
      "çĪ¶": 1844,
      "ä¹İ": 1845,
      "äº«": 1846,
      "èĹı": 1847,
      "è¯ī": 1848,
      "çģµ": 1849,
      "ç³»åĪĹ": 1850,
      "åĪĺ": 1851,
      "åıĳå±ķçļĦ": 1852,
      "åĺ": 1853,
      "ä½³": 1854,
      "æĿ¾": 1855,
      "ç¥¨": 1856,
      "ç¦ģ": 1857,
      "çĽĸ": 1858,
      "ä¸°å¯Į": 1859,
      "å®ŀè·µ": 1860,
      "èĨľ": 1861,
      "è¶ħè¿ĩ": 1862,
      "éĢĻ": 1863,
      "æ¯ķ": 1864,
      "æĸ½å·¥": 1865,
      "å¥¥": 1866,
      "ä¸¤ä¸ª": 1867,
      "æł¸å¿ĥ": 1868,
      "éĻĦ": 1869,
      "è³": 1870,
      "æ©": 1871,
      "æ¨¡å¼ı": 1872,
      "è¡Įä¸º": 1873,
      "è§Ħæ¨¡": 1874,
      "åı¶": 1875,
      "é²ľ": 1876,
      "åĩıå°ĳ": 1877,
      "æ¯Ľ": 1878,
      "ç¤¾ä¼ļä¸»ä¹ī": 1879,
      "ä¿Ŀè¯ģ": 1880,
      "13": 1881,
      "çĺ": 1882,
      "æľĭ": 1883,
      "åĿĹ": 1884,
      "æ¾": 1885,
      "æ°¸": 1886,
      "æĹħæ¸¸": 1887,
      "åºĵ": 1888,
      "èĦĳ": 1889,
      "çĶŁçī©": 1890,
      "è¿İ": 1891,
      "åĽłç´ł": 1892,
      "èĭ¥": 1893,
      "ç¬¬ä¸ī": 1894,
      "èĮĥåĽ´": 1895,
      "ä¸ĵå®¶": 1896,
      "æŃĮ": 1897,
      "èĥĮ": 1898,
      "å¼ķèµ·": 1899,
      "æľĿ": 1900,
      "çļ®èĤ¤": 1901,
      "éł": 1902,
      "å®¶åºŃ": 1903,
      "æ¶Ĥ": 1904,
      "å°¤": 1905,
      "çļĦå¤§": 1906,
      "è¯ļ": 1907,
      "ä¸įåı¯": 1908,
      "åıĤä¸İ": 1909,
      "æĸ¹æ¡Ī": 1910,
      "å®«": 1911,
      "ä¸Ģç§į": 1912,
      "%ãĢĤ": 1913,
      "æĽ²": 1914,
      "ä¼Ł": 1915,
      "æ¥¼": 1916,
      "ç»ıè¿ĩ": 1917,
      "è®¸å¤ļ": 1918,
      "ä»ĸçļĦ": 1919,
      "ç¡¬": 1920,
      "--": 1921,
      "è´¯": 1922,
      "å½»": 1923,
      "å¤ı": 1924,
      "åĲ¯": 1925,
      "ç«¥": 1926,
      "åĬĽéĩı": 1927,
      "æľªæĿ¥": 1928,
      "åªĴ": 1929,
      "æ³ķå¾ĭ": 1930,
      "èħĲ": 1931,
      "æı¡": 1932,
      "åĢŁ": 1933,
      "å®Ĺ": 1934,
      "çĥĪ": 1935,
      "æĬĵ": 1936,
      "åĢĭ": 1937,
      "é£İéĻ©": 1938,
      "åģļå¥½": 1939,
      "æĿĤ": 1940,
      "çŃĶ": 1941,
      "ä½ĵèĤ²": 1942,
      "æ²Ļ": 1943,
      "äº¤æµģ": 1944,
      "çĥŁ": 1945,
      "éķ¿æľŁ": 1946,
      "å¹´æĿ¥": 1947,
      "æĭ¿": 1948,
      "åħ³äºİ": 1949,
      "æľĢåĲİ": 1950,
      "èĻĳ": 1951,
      "åıĹåĪ°": 1952,
      "ä¸Ńåįİ": 1953,
      "ä¸½": 1954,
      "äº®": 1955,
      "ä½Ľ": 1956,
      "åıĺåĮĸ": 1957,
      "åĪ¤": 1958,
      "èļ": 1959,
      "èĥ½æºĲ": 1960,
      "å¦ĩ": 1961,
      "åĪļ": 1962,
      "è°Ī": 1963,
      "çĸĳ": 1964,
      "æľĭåıĭ": 1965,
      "åºŁ": 1966,
      "ä¸Ģæ¬¡": 1967,
      "ä»¥æĿ¥": 1968,
      "çļĦéĩįè¦ģ": 1969,
      "éĿĻ": 1970,
      "éĵ¶è¡Į": 1971,
      "æ¶ī": 1972,
      "ä¸Ģæł·": 1973,
      "ä¸ĩåħĥ": 1974,
      "éĩįå¤§": 1975,
      "ç»ıéªĮ": 1976,
      "èµ·æĿ¥": 1977,
      "åĨ³å®ļ": 1978,
      "æĪĲç«ĭ": 1979,
      "éĹ»": 1980,
      "å©ļ": 1981,
      "å°ģ": 1982,
      "åĨĮ": 1983,
      "ä»¥ä¸ĭ": 1984,
      "éģĹ": 1985,
      "çī¹çĤ¹": 1986,
      "æĮĩå¯¼": 1987,
      "éĺ´": 1988,
      "æ¸Ĳ": 1989,
      "è´¸": 1990,
      "æ´ģ": 1991,
      "è°¢": 1992,
      "æĪĳçļĦ": 1993,
      "åħ³éĶ®": 1994,
      "ä¸Ŀ": 1995,
      "åį«çĶŁ": 1996,
      "è¡ĮæĶ¿": 1997,
      "åĬ³åĬ¨": 1998,
      "æĹ¢": 1999,
      "åĬ±": 2000,
      "éĿ¢ç§¯": 2001,
      "çĲĨè®º": 2002,
      "çłĶåıĳ": 2003,
      "é¡¾": 2004,
      "ä»»åĬ¡": 2005,
      "èĦĤ": 2006,
      "å·¥èīº": 2007,
      "æľºæ¢°": 2008,
      "è¡¨çİ°": 2009,
      "æĺ¯ä¸Ģç§į": 2010,
      "ç¹": 2011,
      "ä¾Ĩ": 2012,
      "æľŁéĹ´": 2013,
      "æľīçļĦ": 2014,
      "éĻįä½İ": 2015,
      "æ¶¦": 2016,
      "ç«ŀäºī": 2017,
      "æķĳ": 2018,
      "æŀ¶": 2019,
      "é¤Ĳ": 2020,
      "éĽ¶": 2021,
      "å®ľ": 2022,
      "æĺ¯åľ¨": 2023,
      "æĿ¯": 2024,
      "æ¡¥": 2025,
      "èģĶç½ĳ": 2026,
      "å»ºè®®": 2027,
      "å·¨": 2028,
      "åħĪè¿Ľ": 2029,
      "èĥŀ": 2030,
      "å¹¿æ³Ľ": 2031,
      "åĪº": 2032,
      "çĩĥ": 2033,
      "ç½ª": 2034,
      "ä¼ĺç§Ģ": 2035,
      "æ£Ģæµĭ": 2036,
      "çłģ": 2037,
      "æİ¥åıĹ": 2038,
      "ç¬¦": 2039,
      "çĶµå½±": 2040,
      "èĪŀ": 2041,
      "çİī": 2042,
      "æĺ¾ç¤º": 2043,
      "ç³ĸ": 2044,
      "é±": 2045,
      "å¢ŀå¼º": 2046,
      "å·Ŀ": 2047,
      "æĵįä½ľ": 2048,
      "æĢİä¹Ī": 2049,
      "çĸ«æĥħ": 2050,
      "æ±ł": 2051,
      "å®£ä¼ł": 2052,
      ")ãĢĤ": 2053,
      "è¿Ŀ": 2054,
      "æİªæĸ½": 2055,
      "çĳ": 2056,
      "çĽŁ": 2057,
      "æŃ£å¸¸": 2058,
      "çŁ¿": 2059,
      "å¹¸": 2060,
      "èĩªåĬ¨": 2061,
      "çĶ°": 2062,
      "æİĮ": 2063,
      "éļĶ": 2064,
      "çİ©": 2065,
      "éĵ¾": 2066,
      "ç»ĵæŀľ": 2067,
      "éª¨": 2068,
      "çī©è´¨": 2069,
      "è®°èĢħ": 2070,
      "ä½łçļĦ": 2071,
      "17": 2072,
      "çļĦé«ĺ": 2073,
      "èĶ": 2074,
      "æĸ¹åĲĳ": 2075,
      "000": 2076,
      "åĳĺå·¥": 2077,
      "æī¬": 2078,
      "å½¢å¼ı": 2079,
      "åħ·ä½ĵ": 2080,
      "åİĭåĬĽ": 2081,
      "çĬ¯": 2082,
      "è´«": 2083,
      "è¿ĳå¹³": 2084,
      "ç¾¤ä¼Ĺ": 2085,
      "é±¼": 2086,
      "å°±ä¼ļ": 2087,
      "åİħ": 2088,
      "éĺ¶æ®µ": 2089,
      "æĦıè¯Ĩ": 2090,
      ")ãĢģ": 2091,
      "ä¼ĳ": 2092,
      "åºĶå½ĵ": 2093,
      "æ´¾": 2094,
      "çŃ¾": 2095,
      "ãĢĭ,": 2096,
      "åĨľä¸ļ": 2097,
      "åĲī": 2098,
      "å¼ĢæĶ¾": 2099,
      "çĶ³è¯·": 2100,
      "âĢĿãĢģ": 2101,
      "ä¹łè¿ĳå¹³": 2102,
      "æĹłæ³ķ": 2103,
      "æ¹¿": 2104,
      "åĩĿ": 2105,
      "çº¸": 2106,
      "éľ²": 2107,
      "æĶ¶åħ¥": 2108,
      "å¿ĥçĲĨ": 2109,
      "å¼±": 2110,
      "è´¡": 2111,
      "ä¸įè¿ĩ": 2112,
      "å¤§éĩı": 2113,
      "è¡¨éĿ¢": 2114,
      "40": 2115,
      "çİ»": 2116,
      "å®ŀéªĮ": 2117,
      "æĮĩåĩº": 2118,
      "æ»¡è¶³": 2119,
      "ç©¿": 2120,
      "åĮĸçļĦ": 2121,
      "ç´¯": 2122,
      "åĪĽéĢł": 2123,
      "åıĳå¸ĥ": 2124,
      "æ··": 2125,
      "æ·±åħ¥": 2126,
      "è¸": 2127,
      "çİ°åľº": 2128,
      "ç»´æĬ¤": 2129,
      "æĦıä¹ī": 2130,
      "25": 2131,
      "å¤ľ": 2132,
      "èµĦéĩĳ": 2133,
      "å¹ħ": 2134,
      "æĪĲæŀľ": 2135,
      "èĽĭ": 2136,
      "æ¸¸æĪı": 2137,
      "åħ¶å®ŀ": 2138,
      "æĹ¥æľ¬": 2139,
      "æ»ĳ": 2140,
      "åĨ¬": 2141,
      "ç©ºéĹ´": 2142,
      "ç£¨": 2143,
      "æ±¡æŁĵ": 2144,
      "ç¢³": 2145,
      "æĪĳä»¬çļĦ": 2146,
      "ä¹Łæľī": 2147,
      "èĦļ": 2148,
      "ä½ľåĵģ": 2149,
      "å·¦åı³": 2150,
      "é«ĺçļĦ": 2151,
      "åĽ¢éĺŁ": 2152,
      "åĳ¼": 2153,
      "å¦Ī": 2154,
      "ä¼´": 2155,
      "å¹¶ä¸Ķ": 2156,
      "çļĦäºĭ": 2157,
      "ç®±": 2158,
      "è§ĦèĮĥ": 2159,
      "ç®Ģåįķ": 2160,
      "æĸĳ": 2161,
      "ä»İèĢĮ": 2162,
      "çĴĥ": 2163,
      "åĿı": 2164,
      "å¥³æĢ§": 2165,
      "è´¥": 2166,
      "åĤ¨": 2167,
      "èľ": 2168,
      "ãĢĤâĢľ": 2169,
      "è®¿": 2170,
      "çĦ¶åĲİ": 2171,
      "çĲĨå¿µ": 2172,
      "çĽĽ": 2173,
      "è®¾æĸ½": 2174,
      "çĹĩçĬ¶": 2175,
      "éĽ·": 2176,
      "å®Įåħ¨": 2177,
      "æ¸©åº¦": 2178,
      "é£Łçī©": 2179,
      "åĲĹ": 2180,
      "æĺ¯åĲ¦": 2181,
      "è·Ŀ": 2182,
      "åłĤ": 2183,
      "é¥°": 2184,
      "æ³¨åĨĮ": 2185,
      "æ¦Ĥ": 2186,
      "60": 2187,
      "çļĦå·¥ä½ľ": 2188,
      "ç¨ĭåº¦": 2189,
      "è¡£": 2190,
      "åĮºåŁŁ": 2191,
      "ç¡®ä¿Ŀ": 2192,
      "ç¤¼": 2193,
      "åĲĪçĲĨ": 2194,
      "çľĭåĪ°": 2195,
      "éĻ¤äºĨ": 2196,
      "åĩºäºĨ": 2197,
      "é¹": 2198,
      "ä¸įå¾Ĺ": 2199,
      "å¸Ŀ": 2200,
      "æľºåĪ¶": 2201,
      "èī¯å¥½çļĦ": 2202,
      "åģı": 2203,
      "æĺİæĺ¾": 2204,
      "éĺ»": 2205,
      "è§¦": 2206,
      "åĪĨåĪ«": 2207,
      "çİ»çĴĥ": 2208,
      "å°ļ": 2209,
      "å¿«éĢŁ": 2210,
      "æĺİç¡®": 2211,
      "èªī": 2212,
      "é¼ĵ": 2213,
      "ä¹³": 2214,
      "äº¤æĺĵ": 2215,
      "çļĦæĥħåĨµ": 2216,
      "åľĭ": 2217,
      "çĶŁåĳ½": 2218,
      "è¯Ĺ": 2219,
      "äºĶè¡Į": 2220,
      "å¸ģ": 2221,
      "èĩªèº«": 2222,
      "çīĻ": 2223,
      "å²Ĺ": 2224,
      "æķ°åŃĹ": 2225,
      "åĢĴ": 2226,
      "ç¼ĵ": 2227,
      "èĤ¥": 2228,
      "éĽª": 2229,
      "ç½ĳç«Ļ": 2230,
      "è¿ĻéĩĮ": 2231,
      "å´": 2232,
      "è¯¯": 2233,
      "çĽĺ": 2234,
      "å®īè£ħ": 2235,
      "çļĦè¯Ŀ": 2236,
      "éĽĦ": 2237,
      "åŁºåľ°": 2238,
      "åŃ¸": 2239,
      "2020": 2240,
      "è±Ĩ": 2241,
      "èģĶåĲĪ": 2242,
      "æĸĩæĺİ": 2243,
      "è°ĥæķ´": 2244,
      "æħ§": 2245,
      "å¹²éĥ¨": 2246,
      "æļĸ": 2247,
      "æķı": 2248,
      "æ¯Ķå¦Ĥ": 2249,
      "åĵĪ": 2250,
      "å¸¦æĿ¥": 2251,
      "åįĪ": 2252,
      "åĸľæ¬¢": 2253,
      "è¯¢": 2254,
      "é½Ĳ": 2255,
      "æĺ¯ä¸Ģä¸ª": 2256,
      "äººç±»": 2257,
      "ç¬ĳ": 2258,
      "åĨ°": 2259,
      "è¯į": 2260,
      "çļĦéĹ®é¢ĺ": 2261,
      "24": 2262,
      "çĶŁçļĦ": 2263,
      "è¡ĮåĬ¨": 2264,
      "è®¨": 2265,
      "çİ¯ä¿Ŀ": 2266,
      "æĿĢ": 2267,
      "ä¸¥æł¼": 2268,
      "éĢĶ": 2269,
      "æĮ¯": 2270,
      "æ±ĩ": 2271,
      "è®¡ç®Ĺ": 2272,
      "çĽĳçĿ£": 2273,
      "è¾Ĩ": 2274,
      "ä¸ĭéĻį": 2275,
      "æ²ī": 2276,
      "åĭĩ": 2277,
      "çļĦæĸ°": 2278,
      "__": 2279,
      "åı«": 2280,
      "éĻĨ": 2281,
      "æĮĳ": 2282,
      "åħ³æ³¨": 2283,
      "ç¼©": 2284,
      "åįģåĪĨ": 2285,
      "éģİ": 2286,
      "éĥ½æľī": 2287,
      "å°¤åħ¶": 2288,
      "åĲ§": 2289,
      "æ½®": 2290,
      "å½Ĵ": 2291,
      "åħļåĳĺ": 2292,
      "å¡Ķ": 2293,
      "å§Ķåĳĺä¼ļ": 2294,
      "ç¥ĸ": 2295,
      "æī§è¡Į": 2296,
      "éĩĬ": 2297,
      "ç»Łä¸Ģ": 2298,
      "ç»¿èī²": 2299,
      "å³°": 2300,
      "é¡¶": 2301,
      "å«": 2302,
      "åı¥è¯Ŀ": 2303,
      "æ°§åĮĸ": 2304,
      "é¦ĸåħĪ": 2305,
      "è¿Ĳè¡Į": 2306,
      "çľŁæŃ£": 2307,
      "å°į": 2308,
      "åģļåĪ°": 2309,
      "æģ¶": 2310,
      "çĬ¶æĢģ": 2311,
      "èĢĥèĻĳ": 2312,
      "åĳĪ": 2313,
      "åĮĸåŃ¦": 2314,
      "ä¸»ä»»": 2315,
      "è´¡çĮ®": 2316,
      "èµĦäº§": 2317,
      "ç»Ĩèĥŀ": 2318,
      "ä½ĵçļĦ": 2319,
      "ä¹Łä¸į": 2320,
      "åĪ¶ä½ľ": 2321,
      "èĴĻ": 2322,
      "åľĨ": 2323,
      "æĿ¨": 2324,
      "çļĩ": 2325,
      "æ³¡": 2326,
      "çī©æµģ": 2327,
      "åĦ¿ç«¥": 2328,
      "æĿ¥è¶Ĭ": 2329,
      "ç§ĺ": 2330,
      "ç»ıå¸¸": 2331,
      "æŃ¤å¤ĸ": 2332,
      "äºĴèģĶç½ĳ": 2333,
      "æľīäºĽ": 2334,
      "ä¸įåĲĮçļĦ": 2335,
      "æ®Ĭ": 2336,
      "éĩįè¦ģçļĦ": 2337,
      "è¶£": 2338,
      "è¶ĬæĿ¥è¶Ĭ": 2339,
      "æ³°": 2340,
      "è´´": 2341,
      "æĿ¥çľĭ": 2342,
      "èµĦæľ¬": 2343,
      "è´¯å½»": 2344,
      "è©": 2345,
      "æ¯ķä¸ļ": 2346,
      "æīĵéĢł": 2347,
      "2021": 2348,
      "ç©ºæ°Ķ": 2349,
      "ç¹ģ": 2350,
      "ç»ĦæĪĲ": 2351,
      "çģ¯": 2352,
      "åıªæĺ¯": 2353,
      "ç¬¦åĲĪ": 2354,
      "ä»Ĭå¤©": 2355,
      "åħ¬åħ±": 2356,
      "åįµ": 2357,
      "æĻ®éĢļ": 2358,
      "çĻ¼": 2359,
      "å¡ŀ": 2360,
      "ç½²": 2361,
      "æķħäºĭ": 2362,
      "åħµ": 2363,
      "æŃ£åľ¨": 2364,
      "èĢĥè¯ķ": 2365,
      "è¡Ĺ": 2366,
      "è¡¡": 2367,
      "èĲ¥åħ»": 2368,
      "éĩİ": 2369,
      "ä¸ºä¸»": 2370,
      "æľ«": 2371,
      "è®¢": 2372,
      "æĦŁæŁĵ": 2373,
      "æĿŁ": 2374,
      "çĻĮ": 2375,
      "å¾ª": 2376,
      "éĩĳå±ŀ": 2377,
      "ä¹Ļ": 2378,
      "çº·": 2379,
      "å®½": 2380,
      "å°¿": 2381,
      "çĿ¡": 2382,
      "éĵĿ": 2383,
      "æĺł": 2384,
      "èį¯çī©": 2385,
      "æ´ĭ": 2386,
      "ç½ļ": 2387,
      "è®¤çľŁ": 2388,
      "å¥¶": 2389,
      "å¯Ĵ": 2390,
      "80": 2391,
      "åİŁåĪĻ": 2392,
      "å±ŀäºİ": 2393,
      "å¢Ļ": 2394,
      "ä¼į": 2395,
      "åĪ¶å®ļ": 2396,
      "æĳĦ": 2397,
      "åĨľæĿĳ": 2398,
      "äºĮåįģ": 2399,
      "è¼": 2400,
      "199": 2401,
      "ç§ĳçłĶ": 2402,
      "æµª": 2403,
      "å°ıæĹ¶": 2404,
      "çĥ§": 2405,
      "ç§ĭ": 2406,
      "å°±ä¸ļ": 2407,
      "2018": 2408,
      "åĬłå¿«": 2409,
      "è¿Ĳè¾ĵ": 2410,
      "2019": 2411,
      "æľīä¸Ģ": 2412,
      "èĥİ": 2413,
      "è·¨": 2414,
      "æĭį": 2415,
      "æľĢç»Ī": 2416,
      "ä¼°": 2417,
      "é¢ľ": 2418,
      "åı¦å¤ĸ": 2419,
      "èĪĩ": 2420,
      "æķĪçİĩ": 2421,
      "æĢķ": 2422,
      "å²Ľ": 2423,
      "åŃ¦ç§ĳ": 2424,
      "åĢĳ": 2425,
      "ä¹Łä¼ļ": 2426,
      "23": 2427,
      "ç¡®å®ļ": 2428,
      "åĶĲ": 2429,
      "èĻļ": 2430,
      "æĶ¹åıĺ": 2431,
      "è®¤è¯Ĩ": 2432,
      "éĢŁåº¦": 2433,
      "æĥ¯": 2434,
      "èĤ¿": 2435,
      "åĸĿ": 2436,
      "ç¬Ķ": 2437,
      "èĪ¹": 2438,
      "æľºåħ³": 2439,
      "çĦ¦": 2440,
      "ç§ģ": 2441,
      "åĿĲ": 2442,
      "æĪĲç»©": 2443,
      "åķĨä¸ļ": 2444,
      "åĢį": 2445,
      "æľºä¼ļ": 2446,
      "èĢģå¸Ī": 2447,
      "çĽ®çļĦ": 2448,
      "çĪĨ": 2449,
      "éĢĤåĲĪ": 2450,
      "å¯¿": 2451,
      "æ¾³": 2452,
      "ä¸Ģä¸ĭ": 2453,
      "æĬĺ": 2454,
      "çº¯": 2455,
      "åĩºåı£": 2456,
      "æ£®": 2457,
      "éļĲ": 2458,
      "æ¶Īè´¹èĢħ": 2459,
      "éĴĪå¯¹": 2460,
      "åįıä¼ļ": 2461,
      "å¯»": 2462,
      "æķ´ä¸ª": 2463,
      "ä¿Ħ": 2464,
      "åħļå§Ķ": 2465,
      "çĽĲ": 2466,
      "æĭĵ": 2467,
      "åĲİçļĦ": 2468,
      "ä¿ĿéĻ©": 2469,
      "æĸ°æĹ¶ä»£": 2470,
      "æ´¥": 2471,
      "æł¹æľ¬": 2472,
      "å¹¿å¤§": 2473,
      "åªĴä½ĵ": 2474,
      "ä¹ĭåīį": 2475,
      "åĩºçļĦ": 2476,
      "é¾Ħ": 2477,
      "ä¾§": 2478,
      "æ¢ģ": 2479,
      "éĽĨä¸Ń": 2480,
      "åı¬": 2481,
      "æĹ§": 2482,
      "æ²»çĲĨ": 2483,
      "è·ĳ": 2484,
      "æĹĹ": 2485,
      "å¤ļçļĦ": 2486,
      "å¹¶ä¸į": 2487,
      "21": 2488,
      "ä¸ªæľĪ": 2489,
      "æļ´": 2490,
      "ä»İäºĭ": 2491,
      "åŁºéĩĳ": 2492,
      "æĶ¹åĸĦ": 2493,
      "æµĵ": 2494,
      "æĥł": 2495,
      "å¤ļç§į": 2496,
      "è°ĥæŁ¥": 2497,
      "åĬŀæ³ķ": 2498,
      "åķĨåĵģ": 2499,
      "éĿ©åĳ½": 2500,
      "æķ´ä½ĵ": 2501,
      "å°Ĭ": 2502,
      "è´·": 2503,
      "éģį": 2504,
      "åĬŀåħ¬": 2505,
      "æĹ¶æľŁ": 2506,
      "æĦıè§ģ": 2507,
      "æī¶": 2508,
      "èĤº": 2509,
      "æ¥ļ": 2510,
      "éĿ¢å¯¹": 2511,
      "çħ¤": 2512,
      "èĳ£": 2513,
      "å¹ķ": 2514,
      "æ³¥": 2515,
      "èĥĥ": 2516,
      "ä¸Ģå®ļè¦ģ": 2517,
      "ä¸ŃåĮ»": 2518,
      "æĸ¼": 2519,
      "éĹŃ": 2520,
      "éĿĴå¹´": 2521,
      "çī¢": 2522,
      "èĩªçĶ±": 2523,
      "ç»ķ": 2524,
      "çī¹æ®Ĭ": 2525,
      "22": 2526,
      "ä¸įå°ĳ": 2527,
      "é¦Ļæ¸¯": 2528,
      "æĬĢèĥ½": 2529,
      "åįĸ": 2530,
      "å½ĵåľ°": 2531,
      "ç¯ĩ": 2532,
      "æĸ¹ä¾¿": 2533,
      "éĩįè§Ĩ": 2534,
      "æº¶": 2535,
      "çĶµè§Ĩ": 2536,
      "è¿ĩåİ»": 2537,
      "å¼ºè°ĥ": 2538,
      "çĲĨè§£": 2539,
      "æģ¢": 2540,
      "çĽĳç®¡": 2541,
      "å·¥ä½ľçļĦ": 2542,
      "è¿ĲèĲ¥": 2543,
      "åľĪ": 2544,
      "å¦ĤæŃ¤": 2545,
      "åĬĽçļĦ": 2546,
      "æĻºæħ§": 2547,
      "èĲ¨": 2548,
      "èµ¢": 2549,
      "çĲĥéĺŁ": 2550,
      "è¯º": 2551,
      "åıªè¦ģ": 2552,
      "å¾Ħ": 2553,
      "å½ĵæĹ¶": 2554,
      "æ¢ħ": 2555,
      "éŁ³ä¹Ĳ": 2556,
      "åĲĮå¿Ĺ": 2557,
      "ç§Ł": 2558,
      "åħ¨éĥ¨": 2559,
      "è§īå¾Ĺ": 2560,
      "éĢļå¸¸": 2561,
      "åŃĶ": 2562,
      "éģĵè·¯": 2563,
      "éĥ½ä¼ļ": 2564,
      "é¸¡": 2565,
      "ä¼ģä¸ļçļĦ": 2566,
      "è¿Ļæł·çļĦ": 2567,
      "æŃ£ç¡®": 2568,
      "è¯¾ç¨ĭ": 2569,
      "è¦Ĩ": 2570,
      "ãĢģãĢĬ": 2571,
      "æİī": 2572,
      "éĺµ": 2573,
      "èĤ¯": 2574,
      "åĢº": 2575,
      "åĽ°éļ¾": 2576,
      "æĪª": 2577,
      "çı¾": 2578,
      "æ¤įçī©": 2579,
      "éĵľ": 2580,
      "è¯¦": 2581,
      "åıįåºĶ": 2582,
      "æ®ĸ": 2583,
      "æ¡£": 2584,
      "çĵ¦": 2585,
      "å±ĭ": 2586,
      "èµĦæł¼": 2587,
      "ç¾İåħĥ": 2588,
      "èĢĹ": 2589,
      "ç¼ĺ": 2590,
      "âĢĿãĢģâĢľ": 2591,
      "æŃ£å¼ı": 2592,
      "çĽ¸å¯¹": 2593,
      "åĩĨå¤ĩ": 2594,
      "éº»": 2595,
      "ä¹±": 2596,
      "ä¼ĺè´¨": 2597,
      "èĵĿ": 2598,
      "åĮ»çĶŁ": 2599,
      "æ¥Ń": 2600,
      "ç¶ĵ": 2601,
      "è¶ĭ": 2602,
      "åĲĦé¡¹": 2603,
      "70": 2604,
      "æ²Ł": 2605,
      "2022": 2606,
      "æĦŁè§ī": 2607,
      "é²ģ": 2608,
      "çģ¾": 2609,
      "ä¸Ģå®ļçļĦ": 2610,
      "æ¯ıå¤©": 2611,
      "ä¹łæĥ¯": 2612,
      "èĢ³": 2613,
      "ä»¥åĲİ": 2614,
      "éŁ©": 2615,
      "éĶħ": 2616,
      "è´¹çĶ¨": 2617,
      "çĽ¸ä¿¡": 2618,
      "åħ¬éĩĮ": 2619,
      "æ¶¨": 2620,
      "éĨĴ": 2621,
      "èĥ¡": 2622,
      "èĤĿ": 2623,
      "éī": 2624,
      "çŃ¹": 2625,
      "è¾Ľ": 2626,
      "å§ĭç»Ī": 2627,
      "çİ°ä»£åĮĸ": 2628,
      "an": 2629,
      "åĲĮæ¯Ķ": 2630,
      "å±±ä¸ľ": 2631,
      "åĮħè£ħ": 2632,
      "ãĢĳ": 2633,
      "åŃĻ": 2634,
      "ãĢĲ": 2635,
      "ä¹Į": 2636,
      "å®ĥçļĦ": 2637,
      "å¾Į": 2638,
      "é«ĺè´¨éĩı": 2639,
      "åħ±äº§": 2640,
      "èĤł": 2641,
      "æķĻæİĪ": 2642,
      "èģĶç³»": 2643,
      "æĹ¥å¸¸": 2644,
      "éĩĩåıĸ": 2645,
      "ç²Ĵ": 2646,
      "æŃ¤æ¬¡": 2647,
      "ä¸»é¢ĺ": 2648,
      "è¿·": 2649,
      "æ²¿": 2650,
      "äº§åĵģçļĦ": 2651,
      "é¢Ħéĺ²": 2652,
      "è¿ħ": 2653,
      "èµĦæĸĻ": 2654,
      "ä¾Ŀæ³ķ": 2655,
      "åĴ¨": 2656,
      "æĬķåħ¥": 2657,
      "åĲ¨": 2658,
      "æĿ¥èĩª": 2659,
      "å¤§å¤ļ": 2660,
      "çŀ": 2661,
      "åĵģè´¨": 2662,
      "ä¾ĽåºĶ": 2663,
      "é«Ķ": 2664,
      "çİ°è±¡": 2665,
      "åĲĦç±»": 2666,
      "æģ¢å¤į": 2667,
      "èŀįåĲĪ": 2668,
      "å¼¹": 2669,
      "é¥®é£Ł": 2670,
      "èļĢ": 2671,
      "éī´": 2672,
      "é«ĺåº¦": 2673,
      "æ·¡": 2674,
      "ä¸ľè¥¿": 2675,
      "ç«Ł": 2676,
      "åı¦ä¸Ģ": 2677,
      "±ä¹Ĳ": 2678,
      "28": 2679,
      "äº¡": 2680,
      "æ½ľ": 2681,
      "ç²ĺ": 2682,
      "å¼ºåĮĸ": 2683,
      "ä½įäºİ": 2684,
      "èħ¹": 2685,
      "ç¯®": 2686,
      "åħ·å¤ĩ": 2687,
      "æĽ¾ç»ı": 2688,
      "åĬłåħ¥": 2689,
      "æĲŃ": 2690,
      "å¹³æĸ¹": 2691,
      "è½¯ä»¶": 2692,
      "æķ¬": 2693,
      "å¿ĺ": 2694,
      "èĢĮæĺ¯": 2695,
      "è§Ī": 2696,
      "æĳ©": 2697,
      "ç¿»": 2698,
      "åĪºæ¿Ģ": 2699,
      "ç·": 2700,
      "åľ³": 2701,
      "åĵªäºĽ": 2702,
      "åıĮæĸ¹": 2703,
      "æ¯«": 2704,
      "åĭ¤": 2705,
      "å¤§ä¼ļ": 2706,
      "èĤĮ": 2707,
      "è§Ĩé¢ĳ": 2708,
      "äººä½ĵ": 2709,
      "æĹłè®º": 2710,
      "26": 2711,
      "æ·±åľ³": 2712,
      "èªª": 2713,
      "äººåı£": 2714,
      "çĤ¼": 2715,
      "åķĨæłĩ": 2716,
      "å®īæİĴ": 2717,
      "éĺŁä¼į": 2718,
      "ä¸ĭæĿ¥": 2719,
      "åĬ¨åĬĽ": 2720,
      "åĭķ": 2721,
      "åĪĳ": 2722,
      "åĩ¡": 2723,
      "å¹¼": 2724,
      "åį·": 2725,
      "ä½įç½®": 2726,
      "åĴ¨è¯¢": 2727,
      "è¾ħ": 2728,
      "é«ĺæł¡": 2729,
      "æķ°éĩı": 2730,
      "çĹħæĥħ": 2731,
      "åĶ±": 2732,
      "äº¦": 2733,
      "çĶĺ": 2734,
      "æĪĲéķ¿": 2735,
      "åħ¼": 2736,
      "åĪĨä¸º": 2737,
      "ä¸ŃåĽ½çī¹èī²": 2738,
      "ä»ģ": 2739,
      "è°ģ": 2740,
      "å¼ºåº¦": 2741,
      "åĩºæĿ¥": 2742,
      "æģ©": 2743,
      "çĦ¶èĢĮ": 2744,
      "å¡ĳæĸĻ": 2745,
      "è°ĵ": 2746,
      "çĶŁç´ł": 2747,
      "ç´«": 2748,
      "è¯¸": 2749,
      "å°ĺ": 2750,
      "åĲĪåĲĮ": 2751,
      "ä¸įè¶³": 2752,
      "åĪĽä¸ļ": 2753,
      "èİ«": 2754,
      "å¹¿ä¸ľ": 2755,
      "çªĹ": 2756,
      "è¯´è¿ĩ": 2757,
      "æĤī": 2758,
      "è´¸æĺĵ": 2759,
      "éķ·": 2760,
      "ä¹ı": 2761,
      "å¿ħè¦ģ": 2762,
      "ä¸ĢåĪĩ": 2763,
      "èµµ": 2764,
      "æĸ°éĹ»": 2765,
      "æİĮæı¡": 2766,
      "ç¨ĭåºı": 2767,
      "ä¸įåĪ°": 2768,
      "ä»ĸä»¬çļĦ": 2769,
      "æīİ": 2770,
      "æ³½": 2771,
      "ä¾µ": 2772,
      "éĺ²æŃ¢": 2773,
      "èħº": 2774,
      "ç¤¾åĮº": 2775,
      "in": 2776,
      "æķ¢": 2777,
      "èµĽåŃ£": 2778,
      "éĽħ": 2779,
      "åĨįæ¬¡": 2780,
      "æĸ¹éĿ¢çļĦ": 2781,
      "æ´Ľ": 2782,
      "ä¿Ĺ": 2783,
      "åĶ¯": 2784,
      "æ¹¾": 2785,
      "å¾Ģå¾Ģ": 2786,
      "ä¾ĭå¦Ĥ": 2787,
      "éĢĲæ¸Ĳ": 2788,
      "å¼ĥ": 2789,
      "åĪ·": 2790,
      "èĭĹ": 2791,
      "è£Ĥ": 2792,
      "å½¢è±¡": 2793,
      "ç¾Ĭ": 2794,
      "æĢ§åĴĮ": 2795,
      "æ¶µ": 2796,
      "æĽ´å¥½": 2797,
      "çļĦå°ı": 2798,
      "è£ģ": 2799,
      "2017": 2800,
      "çļĦä¸»è¦ģ": 2801,
      "æ·»": 2802,
      "æĢ»ä¹¦è®°": 2803,
      "è¿Ļåı¥è¯Ŀ": 2804,
      "èĴ¸": 2805,
      "ä¼¦": 2806,
      "éķľ": 2807,
      "å½ĵçĦ¶": 2808,
      "çĻ£": 2809,
      "ä¹ĺ": 2810,
      "æľĢå¤§çļĦ": 2811,
      "æ¼«": 2812,
      "éģµ": 2813,
      "æģĴ": 2814,
      "ä½ĵçİ°": 2815,
      "å¢¨": 2816,
      "å©´": 2817,
      "ãĢĭãĢģãĢĬ": 2818,
      "èĢģå¹´": 2819,
      "ç¥Ŀ": 2820,
      "æī©å¤§": 2821,
      "è¯Ħä»·": 2822,
      "æĽ¿": 2823,
      "å²¸": 2824,
      "æŀĦå»º": 2825,
      "ä¸ºä»Ģä¹Ī": 2826,
      "åĮĸå·¥": 2827,
      "éĤ£äºĽ": 2828,
      "èĦī": 2829,
      "æĬµ": 2830,
      "è´¢æĶ¿": 2831,
      "åĲĮåŃ¦": 2832,
      "å¹¸ç¦ı": 2833,
      "Â°": 2834,
      "çĺ¤": 2835,
      "æľīæľº": 2836,
      "åĨħçļĦ": 2837,
      "è¿ª": 2838,
      "ä¼Ĭ": 2839,
      "èĸĦ": 2840,
      "å¥ĭæĸĹ": 2841,
      "æ¯ıä¸ª": 2842,
      "ä¹Łåı¯ä»¥": 2843,
      "åĲ´": 2844,
      "ä¸ģ": 2845,
      "çļĦä½ľçĶ¨": 2846,
      "æľ¬æ¬¡": 2847,
      "æ¶īåıĬ": 2848,
      "è«": 2849,
      "æĺ¯ä»Ģä¹Ī": 2850,
      "æľīæīĢ": 2851,
      "å¤§åŀĭ": 2852,
      "å£®": 2853,
      "åĮ»åŃ¦": 2854,
      "ä¼Łå¤§": 2855,
      "å¼Ł": 2856,
      "åģ¿": 2857,
      "ç»ª": 2858,
      "æľīäºº": 2859,
      "æ°ı": 2860,
      "éĶĭ": 2861,
      "é¥Ń": 2862,
      "åı¯èĥ½ä¼ļ": 2863,
      "è¿ŀç»Ń": 2864,
      "æµĻ": 2865,
      "æĪĲäºĨ": 2866,
      "å¤Ħäºİ": 2867,
      "æł·çļĦ": 2868,
      "è¿Ľè¡ĮäºĨ": 2869,
      "27": 2870,
      "èĪĴ": 2871,
      "å¤ļä¸ª": 2872,
      "èį·": 2873,
      "æĬ¥éģĵ": 2874,
      "æĿ°": 2875,
      "çļĦæľĢ": 2876,
      "åĪ©äºİ": 2877,
      "çĶµæ±ł": 2878,
      "ä¼ĺåĮĸ": 2879,
      "çıł": 2880,
      "åĪĢ": 2881,
      "åºĦ": 2882,
      "ç¬¬åĽĽ": 2883,
      "å¼ķå¯¼": 2884,
      "ç¬¬åįģ": 2885,
      "è®¯": 2886,
      "æ±¤": 2887,
      "èĦı": 2888,
      "çļĦäº§åĵģ": 2889,
      "çĽ¸æ¯Ķ": 2890,
      "ç´łè´¨": 2891,
      "éĢĤåºĶ": 2892,
      "å·§": 2893,
      "ç»Łè®¡": 2894,
      "åıªèĥ½": 2895,
      "èī¯å¥½": 2896,
      "æ®ĭ": 2897,
      "çĦ¡": 2898,
      "å¯¦": 2899,
      "å±ķç¤º": 2900,
      "æĻ¶": 2901,
      "æľīäºĨ": 2902,
      "æĭŁ": 2903,
      "çĶŁéķ¿": 2904,
      "çĪ¶æ¯į": 2905,
      "åĩŃ": 2906,
      "çĶ¨çļĦ": 2907,
      "é«ĺéĢŁ": 2908,
      "éľĩ": 2909,
      "ä»įçĦ¶": 2910,
      "è»": 2911,
      "å¾Ĳ": 2912,
      "æµ®": 2913,
      "ä¸ĭçļĦ": 2914,
      "ä½ĵéªĮ": 2915,
      "éĽ»": 2916,
      "çªģåĩº": 2917,
      "35": 2918,
      "çĹħæ¯Ĵ": 2919,
      "ç¤ºèĮĥ": 2920,
      "æ·±åĪ»": 2921,
      "åİ»å¹´": 2922,
      "çīĽçļ®": 2923,
      "éĻ¶": 2924,
      "çķ¶": 2925,
      "ä¼Ļ": 2926,
      "çªģçł´": 2927,
      "ä¸´åºĬ": 2928,
      "åĪ©çĽĬ": 2929,
      "æĥ³è¦ģ": 2930,
      "ç£ģ": 2931,
      "æĪĲåĳĺ": 2932,
      "æīĭæľº": 2933,
      "å®ĥä»¬": 2934,
      "ä¸Ģä½ĵ": 2935,
      "è¿ĺè¦ģ": 2936,
      "è¿¹": 2937,
      "éĩıçļĦ": 2938,
      "é©¾": 2939,
      "æĬ½": 2940,
      "è°ĭ": 2941,
      "æĭľ": 2942,
      "è®Ńç»ĥ": 2943,
      "åıĬåħ¶": 2944,
      "ä¸»åĬ¨": 2945,
      "å¸¸è§ģ": 2946,
      "æı´": 2947,
      "åĩºçĶŁ": 2948,
      "æīĭæľ¯": 2949,
      "æľĹ": 2950,
      "æĥĬ": 2951,
      "åĲ¸æĶ¶": 2952,
      "æĽ¼": 2953,
      "90": 2954,
      "å®ŀåĬĽ": 2955,
      "äºĭä»¶": 2956,
      "æĢĿèĢĥ": 2957,
      "å¤ªéĺ³": 2958,
      "é»ĺ": 2959,
      "ä¸ŃåĽ½çī¹èī²ç¤¾ä¼ļä¸»ä¹ī": 2960,
      "çŃīçŃī": 2961,
      "ç»´çĶŁç´ł": 2962,
      "è§Ĵåº¦": 2963,
      "åĸ·": 2964,
      "æī¿æĭħ": 2965,
      "è°·": 2966,
      "çĳŀ": 2967,
      "èĩªä¸»": 2968,
      "å¤º": 2969,
      "å¤įæĿĤ": 2970,
      "å²Ĺä½į": 2971,
      "ä¸»å¸Ń": 2972,
      "è´Ńä¹°": 2973,
      "ä¸īä¸ª": 2974,
      "è¯ģæĺİ": 2975,
      "è¯Ńè¨Ģ": 2976,
      "è´Łè´£äºº": 2977,
      "æľīçĿĢ": 2978,
      "åĨħéĥ¨": 2979,
      "çī¹åĪ«æĺ¯": 2980,
      "æ±Łèĭı": 2981,
      "åĿļå®ļ": 2982,
      "«çĹ": 2983,
      "èĩªæĪĳ": 2984,
      "è¯´æĺİ": 2985,
      "åįĩçº§": 2986,
      "åĲ«æľī": 2987,
      "æ¬§æ´²": 2988,
      "çļĦå½±åĵį": 2989,
      "åľ£": 2990,
      "ä¸Ģå¹´": 2991,
      "åħįçĸ«": 2992,
      "æ°¨": 2993,
      "çīĽçļ®çĻ£": 2994,
      "æ¬²": 2995,
      "æľºåĻ¨": 2996,
      "ä¸ĸçºª": 2997,
      "ç«¹": 2998,
      "æĮĳæĪĺ": 2999,
      "å±ħæ°ĳ": 3000,
      "åĳĬè¯ī": 3001,
      "å±ı": 3002,
      "è¿ĽæŃ¥": 3003,
      "çĮª": 3004,
      "æİ¢ç´¢": 3005,
      "å¹³åĿĩ": 3006,
      "èģĮå·¥": 3007,
      "æ²³åįĹ": 3008,
      "ä¸Ĭå¸Ĥ": 3009,
      "é¡¿": 3010,
      "ç§°ä¸º": 3011,
      "ç±į": 3012,
      "çģ°": 3013,
      "æİ¨å¹¿": 3014,
      "çº¤": 3015,
      "åħ¨ä½ĵ": 3016,
      "éĥĳ": 3017,
      "çļĦåŁºç¡Ģ": 3018,
      "è®²è¯Ŀ": 3019,
      "æ©Ł": 3020,
      "èĤ¡ä»½": 3021,
      "åĿĢ": 3022,
      "æľ±": 3023,
      "è¿ĲçĶ¨": 3024,
      "è®¤è¯ģ": 3025,
      "éĸĵ": 3026,
      "æ³Į": 3027,
      "ä¼łæĴŃ": 3028,
      "å£ģ": 3029,
      "åħ§": 3030,
      "éĿ¢çļĦ": 3031,
      "å°¤åħ¶æĺ¯": 3032,
      "æ§": 3033,
      "å¹´è½»": 3034,
      "èĳ£äºĭ": 3035,
      "«çĹ«": 3036,
      "çĻ«çĹ«": 3037,
      "åľ°ä½į": 3038,
      "å±ĳ": 3039,
      "èĢĮè¨Ģ": 3040,
      "çĻ½æĸĳ": 3041,
      "ä¸¾åĬŀ": 3042,
      "æĹ¦": 3043,
      "èĽĭçĻ½": 3044,
      "ç¢į": 3045,
      "çĵ·": 3046,
      "è§Ĥä¼Ĺ": 3047,
      "åĪ¸": 3048,
      "éģŃ": 3049,
      "ç»ıçĲĨ": 3050,
      "æĻĵ": 3051,
      "å½ĵåīį": 3052,
      "å±¥": 3053,
      "èĢħçļĦ": 3054,
      "æµĭè¯ķ": 3055,
      "äººå£«": 3056,
      "æľ¬èº«": 3057,
      "ç±»åŀĭ": 3058,
      "å®ĭ": 3059,
      "åĽ½æľī": 3060,
      "æ¬¢è¿İ": 3061,
      "ç¨®": 3062,
      "æĩī": 3063,
      "æĸĩä»¶": 3064,
      "éĢ²": 3065,
      "è¿ĳå¹´æĿ¥": 3066,
      "ä¸Ńå°ı": 3067,
      "çĶ¢": 3068,
      "æĺĮ": 3069,
      "èĲ¥éĶĢ": 3070,
      "çıį": 3071,
      "è¿Ļä¸ªéĹ®é¢ĺ": 3072,
      "ç½Ĺæĸ¯": 3073,
      "èĦ¸": 3074,
      "ç»ıåİĨ": 3075,
      "å§ĵ": 3076,
      "æĹº": 3077,
      "çļĦæ²»çĸĹ": 3078,
      "æİ¥è§¦": 3079,
      "29": 3080,
      "éĺħ": 3081,
      "åį±å®³": 3082,
      "å®ı": 3083,
      "é¼ĵåĬ±": 3084,
      "çĭ¬ç«ĭ": 3085,
      "èħĶ": 3086,
      "è¿ħéĢŁ": 3087,
      "å®ŀéªĮå®¤": 3088,
      "æµĻæ±Ł": 3089,
      "å¦»": 3090,
      "æĿĨ": 3091,
      "å¼ºçļĦ": 3092,
      "ä¸¹": 3093,
      "è´¦": 3094,
      "åħĪçĶŁ": 3095,
      "å®ĩ": 3096,
      "åĬ¨çī©": 3097,
      "çľŁçļĦ": 3098,
      "åĺī": 3099,
      "éĿ¢ä¸´": 3100,
      "åĲĦåľ°": 3101,
      "æ¯ıå¹´": 3102,
      "åĭĴ": 3103,
      "èĭ±åĽ½": 3104,
      "è¿½æ±Ĥ": 3105,
      "æĦĪ": 3106,
      "æĭĶ": 3107,
      "è±ª": 3108,
      "è¹": 3109,
      "æ»¤": 3110,
      "èŀº": 3111,
      "500": 3112,
      "çļĦæĹ¶éĹ´": 3113,
      "æĪ´": 3114,
      "åħ¬å¼Ģ": 3115,
      "36": 3116,
      "æĴĳ": 3117,
      "å¹´åº¦": 3118,
      "å¤©çĦ¶": 3119,
      "æĺ¯æĮĩ": 3120,
      "çİ°å®ŀ": 3121,
      "èģĶèµĽ": 3122,
      "åĽĽå·Ŀ": 3123,
      "åĲ¸å¼ķ": 3124,
      "åŃ¦æľ¯": 3125,
      "å°±åı¯ä»¥": 3126,
      "åĵ¥": 3127,
      "æĢ»ç»ĵ": 3128,
      "ä½¿åĳ½": 3129,
      "é¢ĨåħĪ": 3130,
      "åĢ¼å¾Ĺ": 3131,
      "çĬ¯ç½ª": 3132,
      "ç»ĵæĿŁ": 3133,
      "æħİ": 3134,
      "æĹĭ": 3135,
      "æ·±åĮĸ": 3136,
      "éħĴåºĹ": 3137,
      "éĸĭ": 3138,
      "è½´": 3139,
      "2015": 3140,
      "èµı": 3141,
      "çĩ¥": 3142,
      "éĥ¨ç½²": 3143,
      "å¡«": 3144,
      "å¿ł": 3145,
      "èģĺ": 3146,
      "èĤ¯å®ļ": 3147,
      "æ¯ıä¸Ģ": 3148,
      "éĹľ": 3149,
      "çĲĨæĥ³": 3150,
      "äºĭå®ŀ": 3151,
      "2016": 3152,
      "ä¸»ä½ĵ": 3153,
      "ä¸°å¯ĮçļĦ": 3154,
      "å¹¿å·ŀ": 3155,
      "èķ": 3156,
      "èµŀ": 3157,
      "åĿ¦": 3158,
      "éĶĪ": 3159,
      "åįıè°ĥ": 3160,
      "å¤ļå°ĳ": 3161,
      "å¦Ĥä»Ĭ": 3162,
      "å¥ī": 3163,
      "æľ¬ç§ĳ": 3164,
      "åıĳçĹħ": 3165,
      "éĤĦ": 3166,
      "ä¸¾è¡Į": 3167,
      "å¾ªçİ¯": 3168,
      "ĥåľ": 3169,
      "å®¶éķ¿": 3170,
      "å®ŀè¡Į": 3171,
      "æłĩå¿Ĺ": 3172,
      "çĲĥåĳĺ": 3173,
      "åħ¬åı¸çļĦ": 3174,
      "ç»ĻäºĪ": 3175,
      "æ±¡æ°´": 3176,
      "æ¶ĤæĸĻ": 3177,
      "èī²çļĦ": 3178,
      "åĪĽä½ľ": 3179,
      "æĹ¨": 3180,
      "åŃĲçļĦ": 3181,
      "æŁĶ": 3182,
      "éº¦": 3183,
      "åħ¬è·¯": 3184,
      "åħĪåĲİ": 3185,
      "çģŃ": 3186,
      "æĬĳ": 3187,
      "äºĭæĥħ": 3188,
      "åĹ": 3189,
      "æīĭæ®µ": 3190,
      "æĶ¯ä»ĺ": 3191,
      "è®¾ç½®": 3192,
      "æĸ°åŀĭ": 3193,
      "ä¸»æĮģ": 3194,
      "æľºçļĦ": 3195,
      "æĩĤ": 3196,
      "çľł": 3197,
      "éĩįåºĨ": 3198,
      "å¹¿åĳĬ": 3199,
      "åİĤå®¶": 3200,
      "åĨłåĨĽ": 3201,
      "åĬłå¤§": 3202,
      "æĥħç»ª": 3203,
      "éĩįæĸ°": 3204,
      "er": 3205,
      "é¢Ĺ": 3206,
      "å¾Īå¤§": 3207,
      "çŁ¥åĲį": 3208,
      "è·³": 3209,
      "èİ±": 3210,
      "åħ±äº§åħļ": 3211,
      "èĩªæ²»": 3212,
      "æıı": 3213,
      "çĶµåĬĽ": 3214,
      "çĶŁæ´»ä¸Ń": 3215,
      "ä»¤äºº": 3216,
      "è¾ĳ": 3217,
      "å±ķå¼Ģ": 3218,
      "è¶ĭåĬ¿": 3219,
      "ä¼ı": 3220,
      "å°ĳå¹´": 3221,
      "åĩĨç¡®": 3222,
      "æļĹ": 3223,
      "è½¨": 3224,
      "æľĢå¤§": 3225,
      "è½¦è¾Ĩ": 3226,
      "å»ī": 3227,
      "è¿Ķ": 3228,
      "åŁºå±Ĥ": 3229,
      "ç§»åĬ¨": 3230,
      "å¤§å¤§": 3231,
      "è¯ķéªĮ": 3232,
      "æ³ķè§Ħ": 3233,
      "çĸĨ": 3234,
      "å¸ĥå±Ģ": 3235,
      "åĽ´ç»ķ": 3236,
      "åĲĽ": 3237,
      "åŃ¦ä¼ļ": 3238,
      "çĽ¸åºĶ": 3239,
      "èįĲ": 3240,
      "é£İæł¼": 3241,
      "äº«åıĹ": 3242,
      "å¹³æĸ¹ç±³": 3243,
      "æĭĴ": 3244,
      "é«ĺçŃī": 3245,
      "ç²®": 3246,
      "åħĥç´ł": 3247,
      "åį³ä½¿": 3248,
      "æį·": 3249,
      "æī£": 3250,
      "è´Ŀ": 3251,
      "äº§æĿĥ": 3252,
      "çļĦåľ°æĸ¹": 3253,
      "è¡Ģç®¡": 3254,
      "ä¸įèī¯": 3255,
      "âĢĿâĢľ": 3256,
      "æ³ķéĻ¢": 3257,
      "æĳĨ": 3258,
      "ä¿Ħç½Ĺæĸ¯": 3259,
      "åıĳçĶµ": 3260,
      "äººå·¥": 3261,
      "ä¹ĭéĹ´çļĦ": 3262,
      "èħĲèļĢ": 3263,
      "çļĦå¿ĥ": 3264,
      "æ´ŀ": 3265,
      "éĽķ": 3266,
      "éĩĮçļĦ": 3267,
      "çĬ¶åĨµ": 3268,
      "èĻ«": 3269,
      "é«ĺæķĪ": 3270,
      "è¯¦ç»Ĩ": 3271,
      "æ¦ľ": 3272,
      "åĽ½åĬ¡": 3273,
      "ä¸Ģä¸ªäºº": 3274,
      "ä¹¡æĿĳ": 3275,
      "çļĦä¼ģä¸ļ": 3276,
      "è¿Ļä¹Ī": 3277,
      "åĪ¶åĵģ": 3278,
      "å¿½": 3279,
      "åŀĥåľ": 3280,
      "åŀĥåľ¾": 3281,
      "çĽ¸å½ĵ": 3282,
      "198": 3283,
      "èĤ¾": 3284,
      "æİĴåĲį": 3285,
      "æ¸ł": 3286,
      "åĪĨæ³Į": 3287,
      "éħįåĲĪ": 3288,
      "æĭ¼": 3289,
      "æłı": 3290,
      "æĪĲåĪĨ": 3291,
      "æľĢé«ĺ": 3292,
      "çİ¯èĬĤ": 3293,
      "å¤§åĬĽ": 3294,
      "éĻ·": 3295,
      "çį": 3296,
      "æĮĤ": 3297,
      "çĥ¯": 3298,
      "æ¨ª": 3299,
      "ä¼¼ä¹İ": 3300,
      "ä¸Ĭè¿°": 3301,
      "çĦĬ": 3302,
      "è¦ĨçĽĸ": 3303,
      "è¯Ħä¼°": 3304,
      "æ³µ": 3305,
      "é©±": 3306,
      "å¤ļå¹´": 3307,
      "èĬĤèĥ½": 3308,
      "é¡ºåĪ©": 3309,
      "å°¾": 3310,
      "è¿Ļæ¬¡": 3311,
      "åĩī": 3312,
      "çļĦåĲĮæĹ¶": 3313,
      "éģĵå¾·": 3314,
      "å¼ķé¢Ĩ": 3315,
      "æµĭéĩı": 3316,
      "æĪĲçĨŁ": 3317,
      "éļĨ": 3318,
      "èĶ¬": 3319,
      "å¯¿åĳ½": 3320,
      "æĬ¢": 3321,
      "ä¸Ĭåįĩ": 3322,
      "åĪĨåŃĲ": 3323,
      "åĬŀçĲĨ": 3324,
      "on": 3325,
      "å·¥åħ·": 3326,
      "é©¶": 3327,
      "è¿«": 3328,
      "æļĤ": 3329,
      "éĢĲæŃ¥": 3330,
      "å¿Ĩ": 3331,
      "å±ķçİ°": 3332,
      "ä¸Ģæĺ¯": 3333,
      "æ¯Ķä¾ĭ": 3334,
      "é£ŁçĶ¨": 3335,
      "è£ħå¤ĩ": 3336,
      "èĳĹåĲį": 3337,
      "çĽ¸äºĴ": 3338,
      "åİŁæĸĻ": 3339,
      "ä»ªåĻ¨": 3340,
      "2000": 3341,
      "å©´åĦ¿": 3342,
      "æ³ī": 3343,
      "è¾ī": 3344,
      "æľīå¾Īå¤ļ": 3345,
      "çĵľ": 3346,
      "åıĺå¾Ĺ": 3347,
      "éĻĲåĪ¶": 3348,
      "æī¾åĪ°": 3349,
      "éŀ": 3350,
      "å®¾": 3351,
      "åĿĽ": 3352,
      "æĸĩåŃ¦": 3353,
      "ä¹łè¿ĳå¹³æĢ»ä¹¦è®°": 3354,
      "çĶľ": 3355,
      "éĢļçŁ¥": 3356,
      "æŁ±": 3357,
      "è®©äºº": 3358,
      "çļĦè¦ģæ±Ĥ": 3359,
      "æ°ĳä¸»": 3360,
      "åĲ«éĩı": 3361,
      "æ²ŁéĢļ": 3362,
      "åĽ½åĬ¡éĻ¢": 3363,
      "è½¬åŀĭ": 3364,
      "è´·æ¬¾": 3365,
      "æŃ¦æ±ī": 3366,
      "æĽ´å¤ļçļĦ": 3367,
      "äºĭæķħ": 3368,
      "åĽ¢ç»ĵ": 3369,
      "ä¼¸": 3370,
      "è£ħé¥°": 3371,
      "å¤ļæ¬¡": 3372,
      "å¿ĥçļĦ": 3373,
      "åľ¨ä¸ŃåĽ½": 3374,
      "éļ¾ä»¥": 3375,
      "åľŁåľ°": 3376,
      "çŃīæĸ¹éĿ¢": 3377,
      ",ãĢĬ": 3378,
      "ä¼¯": 3379,
      "åįļå£«": 3380,
      "æĽ´æĺ¯": 3381,
      "å§Ĩ": 3382,
      "æĦŁåĪ°": 3383,
      "æĢ»ä½ĵ": 3384,
      "çĶ·æĢ§": 3385,
      "å¹´é¾Ħ": 3386,
      "åľ°äº§": 3387,
      "ä¸ĢçĤ¹": 3388,
      "åľ¨äºİ": 3389,
      "è¦ģæ³¨æĦı": 3390,
      "æĪĲå°±": 3391,
      "æĶ¯æĴĳ": 3392,
      "ä¸ĵä¸ļçļĦ": 3393,
      "çĵ¶": 3394,
      "æĶ¾åľ¨": 3395,
      "é¼»": 3396,
      "æĦŁæĥħ": 3397,
      "æıĲä¾ĽäºĨ": 3398,
      "31": 3399,
      "çķħ": 3400,
      "æ³¨éĩį": 3401,
      "çļĦå¥½": 3402,
      "ä¼ļä¸Ĭ": 3403,
      "çĤī": 3404,
      "æķĪçĽĬ": 3405,
      "åĭĻ": 3406,
      "å®¤åĨħ": 3407,
      "è´¢åĬ¡": 3408,
      "æĢĿç»´": 3409,
      "åĩłä¹İ": 3410,
      "æĪĲéĥ½": 3411,
      "èĻİ": 3412,
      "æ¶Īæģ¯": 3413,
      "ç¾İä¸½": 3414,
      "åĽĽä¸ª": 3415,
      "æĢģåº¦": 3416,
      "å¾·åĽ½": 3417,
      "åį±éĻ©": 3418,
      "åı¬å¼Ģ": 3419,
      "åıįæĺł": 3420,
      "å¯º": 3421,
      "æģĭ": 3422,
      "èī°": 3423,
      "çļĦçĶŁæ´»": 3424,
      "å¤§åĪ©": 3425,
      "ä¼ļè®¡": 3426,
      "å®¿": 3427,
      "äººåľ¨": 3428,
      "å®ĺæĸ¹": 3429,
      "èĥĨ": 3430,
      "åįıè®®": 3431,
      "æ¸ħæ´ģ": 3432,
      "åĲĪæł¼": 3433,
      "ä¸ĭéĿ¢": 3434,
      "åĨ³èµĽ": 3435,
      "æ¡ĥ": 3436,
      "æĺ¯ä¸į": 3437,
      "èħ¾": 3438,
      "ä»¿": 3439,
      "è¡°": 3440,
      "çģĮ": 3441,
      "en": 3442,
      "çĶµåĬ¨": 3443,
      "éĻ¢æł¡": 3444,
      "å·ŀå¸Ĥ": 3445,
      "çĽĳæµĭ": 3446,
      "éĹ²": 3447,
      "åħ«åŃĹ": 3448,
      "åħ¬å®ī": 3449,
      "----": 3450,
      "é¬": 3451,
      "è¯ģä¹¦": 3452,
      "ä¹ĭå¤ĸ": 3453,
      "åĽºå®ļ": 3454,
      "è²Į": 3455,
      "é«ĺçº§": 3456,
      "åĢ¾": 3457,
      "ç¢İ": 3458,
      "éĵģè·¯": 3459,
      "éĨĩ": 3460,
      "åı¯éĿł": 3461,
      "è¿Ľåı£": 3462,
      "åĲĦä¸ª": 3463,
      "æŀĦæĪĲ": 3464,
      "çļĦä¸Ģç§į": 3465,
      "å¦Īå¦Ī": 3466,
      "é¢ľèī²": 3467,
      "ä¸ĩäºº": 3468,
      "è¿ŀæİ¥": 3469,
      "éģĩåĪ°": 3470,
      "âĢĻ": 3471,
      "çļĦæĸ¹å¼ı": 3472,
      "å°ĩ": 3473,
      "åĵ²": 3474,
      "çłĸ": 3475,
      "åįģäºĮ": 3476,
      "éĢĴ": 3477,
      "çº¹": 3478,
      "åĳ¼åĲ¸": 3479,
      "è·Ŀç¦»": 3480,
      "45": 3481,
      "åĨĴ": 3482,
      "èµĸ": 3483,
      "åĬĽåº¦": 3484,
      "äºķ": 3485,
      "æ¸ħæ¥ļ": 3486,
      "å°½éĩı": 3487,
      "åĪ«äºº": 3488,
      "ä½ľåĩº": 3489,
      "æľĢå¥½": 3490,
      "åĨ³çŃĸ": 3491,
      "äºĮæĺ¯": 3492,
      "ä¸»è¦ģæĺ¯": 3493,
      "è®°å½ķ": 3494,
      "çļĦæĬĢæľ¯": 3495,
      "å°º": 3496,
      "åĩºçīĪ": 3497,
      "çī©çļĦ": 3498,
      "éħ¯": 3499,
      "æĦıåĳ³": 3500,
      "åĲĦçº§": 3501,
      "ç¼ºä¹ı": 3502,
      "ç¸": 3503,
      "åĬ²": 3504,
      "å¹´ä»£": 3505,
      "ä»£çĲĨ": 3506,
      "è¯ķç®¡": 3507,
      "çĻ»è®°": 3508,
      "ç¾İçļĦ": 3509,
      "èı²": 3510,
      "åĵģç§į": 3511,
      "æĬĬæı¡": 3512,
      "èµ¶": 3513,
      "éĶ»": 3514,
      "æľŁçļĦ": 3515,
      "ä¼ļæľī": 3516,
      "æ±Ĺ": 3517,
      "åķĨåĬ¡": 3518,
      "è¶³çĲĥ": 3519,
      "æĮĩæłĩ": 3520,
      "è¡¨æĺİ": 3521,
      "åģļåĩº": 3522,
      "æł¡åĽŃ": 3523,
      "æİ¨èįĲ": 3524,
      "å¤§å¤ļæķ°": 3525,
      "åĪĩå®ŀ": 3526,
      "æ²Ĵ": 3527,
      "åĿ¡": 3528,
      "æľĪä»½": 3529,
      "ç»´ä¿®": 3530,
      "å¤§éĥ¨åĪĨ": 3531,
      "æ³Ħ": 3532,
      "åĵ¡": 3533,
      "å»ºæĪĲ": 3534,
      "çĭ¬çī¹": 3535,
      "è¡¨è¾¾": 3536,
      "æ°Ľ": 3537,
      "åŃĲå®«": 3538,
      "å°½ç®¡": 3539,
      "äºĳåįĹ": 3540,
      "ãĢĭãĢĤ": 3541,
      "ä¾Ŀæį®": 3542,
      "å¿ĹæĦ¿": 3543,
      "æª": 3544,
      "æĪĴ": 3545,
      "åľºæīĢ": 3546,
      "éĺ²æİ§": 3547,
      "äººçĶŁ": 3548,
      "æ´ª": 3549,
      "æĶ¹éĢł": 3550,
      "è¾£": 3551,
      "åĽĬ": 3552,
      "çļĦä¸į": 3553,
      "åħ¬åĽŃ": 3554,
      "åĲİæĿ¥": 3555,
      "ç¢±": 3556,
      "èĥĮæĻ¯": 3557,
      "çº¤ç»´": 3558,
      "é»ŀ": 3559,
      "é¢Ī": 3560,
      "ç¡ķ": 3561,
      "æĺ¾èĳĹ": 3562,
      "åĩłä¸ª": 3563,
      "æģĲ": 3564,
      "ç¥ŀç»ı": 3565,
      "æĶ¯éĥ¨": 3566,
      "æ¹ĸåįĹ": 3567,
      "è·ĥ": 3568,
      "æ¼ı": 3569,
      "æ¡Īä»¶": 3570,
      "åº¦çļĦ": 3571,
      "çĻ¾å¹´": 3572,
      "å®Ŀå®Ŀ": 3573,
      "è³ª": 3574,
      "å¿Ļ": 3575,
      "éĥŃ": 3576,
      "è°Ĳ": 3577,
      "é©»": 3578,
      "èŀįèµĦ": 3579,
      "æ£ĢéªĮ": 3580,
      "ç¡ħ": 3581,
      "éħįå¥Ĺ": 3582,
      "ä¸Ģèĩ´": 3583,
      "è½¬åĮĸ": 3584,
      "çĤŃ": 3585,
      "æĻĭ": 3586,
      "ãĢĭãĢĬ": 3587,
      "æ¼Ĩ": 3588,
      "äºİæĺ¯": 3589,
      "ä¸Ńåįİæ°ĳæĹı": 3590,
      "çĻ½çĻľé£İçļĦ": 3591,
      "ä»ĵ": 3592,
      "ä¹ĥ": 3593,
      "æĸ°æĬĢæľ¯": 3594,
      "åĲĮæł·": 3595,
      "èº«ä»½": 3596,
      "é¦ĸæ¬¡": 3597,
      "è¡Įä¸ļçļĦ": 3598,
      "çĸ¼": 3599,
      "éĶģ": 3600,
      "æĬ¤çĲĨ": 3601,
      "ãĢĤ(": 3602,
      "ä½©": 3603,
      "æµģç¨ĭ": 3604,
      "å§Ķä¼ļ": 3605,
      "äºĭé¡¹": 3606,
      "èĩ´åĬĽ": 3607,
      "çŁ³æ²¹": 3608,
      "åĪ©æ¶¦": 3609,
      "çľģçº§": 3610,
      "âĢĺ": 3611,
      "åĩ¯": 3612,
      "åĨ»": 3613,
      "å¼ķåıĳ": 3614,
      "300": 3615,
      "åĪĬ": 3616,
      "ä½¿å¾Ĺ": 3617,
      "ä¸ĵåĪ©": 3618,
      "æĵ¦": 3619,
      "è¿ģ": 3620,
      "è¯±": 3621,
      "æī«": 3622,
      "è£ħç½®": 3623,
      "å¦Ĥæŀľä½ł": 3624,
      "æĤ£èĢħçļĦ": 3625,
      "èĪªç©º": 3626,
      "å®ħ": 3627,
      "åħ¬å¸ĥ": 3628,
      "èĪį": 3629,
      "èĶ¬èıľ": 3630,
      "åı¯æĺ¯": 3631,
      "åĳĪçİ°": 3632,
      "æĨ": 3633,
      "åıĳè¡¨": 3634,
      "å¯¹å¤ĸ": 3635,
      "èĥ¸": 3636,
      "ç»ĺ": 3637,
      "åĴĮåĽ½": 3638,
      "ä½ĵåĪ¶": 3639,
      "çļĦäºĭæĥħ": 3640,
      "çļĦä¸Ģä¸ª": 3641,
      "æĿľ": 3642,
      "æĬ±": 3643,
      "æīĢè°ĵ": 3644,
      "éĥ½ä¸į": 3645,
      "å¹³è¡¡": 3646,
      "çĥ¦": 3647,
      "æ´»æĢ§": 3648,
      "éĢĤå½ĵ": 3649,
      "æĺ¯ä¸ŃåĽ½": 3650,
      "æ¸Ĺ": 3651,
      "å°±èĥ½": 3652,
      "å¥ı": 3653,
      "èĩ³ä»Ĭ": 3654,
      "åľ¨çº¿": 3655,
      "è·Į": 3656,
      "å²©": 3657,
      "ä¿¡çĶ¨": 3658,
      "çĹħäºº": 3659,
      "æĢ»æĺ¯": 3660,
      "å¯¹æĸ¹": 3661,
      "çĽ¸åĲĮ": 3662,
      "åİŁçĲĨ": 3663,
      "æŃ»äº¡": 3664,
      "çļĦæĸ¹æ³ķ": 3665,
      "æ¸ħæ´Ĺ": 3666,
      "è®¡ç®Ĺæľº": 3667,
      "å«Į": 3668,
      "ç§¦": 3669,
      "çľŁå®ŀ": 3670,
      "èĴĻåı¤": 3671,
      "å¸¦çĿĢ": 3672,
      "è°±": 3673,
      "åĲĬ": 3674,
      "ä¸Ģå®¶": 3675,
      "ä¸ĢæĹ¦": 3676,
      "ä»ĸäºº": 3677,
      "é©¬åħĭ": 3678,
      "åħħæ»¡": 3679,
      "å¾Īå¥½çļĦ": 3680,
      "åĲ¯åĬ¨": 3681,
      "åĬŀåŃ¦": 3682,
      "ä¸īå¹´": 3683,
      "èį¯åĵģ": 3684,
      "å¹²çĩ¥": 3685,
      "åħ´è¶£": 3686,
      "æ°£": 3687,
      "çļĦæ°´": 3688,
      "è°ĥèĬĤ": 3689,
      "èĥľåĪ©": 3690,
      "ä¼Ĺå¤ļ": 3691,
      "æĻ®éģį": 3692,
      "è¡¥åħħ": 3693,
      "æĽ´å¥½çļĦ": 3694,
      "æ»´": 3695,
      "2014": 3696,
      "åĿļåĨ³": 3697,
      "æ²³åĮĹ": 3698,
      "æįŁå¤±": 3699,
      "?âĢĿ": 3700,
      "ä¸Ģæµģ": 3701,
      "é«ĺæ¸©": 3702,
      "æĸĩåŃĹ": 3703,
      "èµ·åĪ°": 3704,
      "èĳ¡": 3705,
      "çº¢èī²": 3706,
      "æŃ£æĺ¯": 3707,
      "æıĲåĪ°": 3708,
      "åķĬ": 3709,
      "å¸ĤåľºçļĦ": 3710,
      "åŃ¦åİĨ": 3711,
      "çī¹å¾ģ": 3712,
      "åħ±äº«": 3713,
      "åĪĨå¸ĥ": 3714,
      "çĪ±æĥħ": 3715,
      "æ¸łéģĵ": 3716,
      "éĢĨ": 3717,
      "æķĮ": 3718,
      "è¾½": 3719,
      "æĸĩç«ł": 3720,
      "éĤĢ": 3721,
      "æīĢåľ¨": 3722,
      "ä¿Ŀæ¸©": 3723,
      "å¾Īå¤§çļĦ": 3724,
      "å½¢åĬ¿": 3725,
      "å´ĩ": 3726,
      "åľ¨è¿Ļ": 3727,
      "èĤĥ": 3728,
      "ç¾İæľ¯": 3729,
      "åľ¨ä¸Ģèµ·": 3730,
      "å£¤": 3731,
      "çļĦåİŁåĽł": 3732,
      "æľĢä½³": 3733,
      "æİĴæĶ¾": 3734,
      "ä¹Łå°±æĺ¯": 3735,
      "åŃ©åŃĲä»¬": 3736,
      "èĿ": 3737,
      "åįĹäº¬": 3738,
      "å¾Īå¤ļäºº": 3739,
      "å¼Ĥå¸¸": 3740,
      "åĩĢåĮĸ": 3741,
      "æĻ¨": 3742,
      "çĻ¾åĪĨ": 3743,
      "å½¼": 3744,
      "ä¹Łèĥ½": 3745,
      "èĲĦ": 3746,
      "æī¹åĩĨ": 3747,
      "äººå¤§": 3748,
      "åīįçļĦ": 3749,
      "å®Įæķ´": 3750,
      "åŁ¹èĤ²": 3751,
      "è§Ĥå¯Ł": 3752,
      "æĸ°åĨł": 3753,
      "çĪ¸": 3754,
      "æ¶Īéĺ²": 3755,
      "åľ¨æŃ¤": 3756,
      "æĸ°èĥ½æºĲ": 3757,
      "æ°Ķä½ĵ": 3758,
      "èĬĤçĽ®": 3759,
      "çĿĽ": 3760,
      "ä¸»ç®¡": 3761,
      "ç¬¬äºĶ": 3762,
      "å¹¶ä¸įæĺ¯": 3763,
      "æľīåĪ©äºİ": 3764,
      "éĺĶ": 3765,
      "è¢ĭ": 3766,
      "åĶ¯ä¸Ģ": 3767,
      "è®¾ç«ĭ": 3768,
      "æľºåľº": 3769,
      "èĤª": 3770,
      "ç²Ĺ": 3771,
      "äº©": 3772,
      "ä»Ļ": 3773,
      "éĤ®": 3774,
      "è³ĩ": 3775,
      "èĦĤèĤª": 3776,
      "æĤ²": 3777,
      "åĪ¶éĢłä¸ļ": 3778,
      "ä¸įåĨį": 3779,
      "è¡ĮçļĦ": 3780,
      "éĩĩè´Ń": 3781,
      "ä½łä»¬": 3782,
      "1000": 3783,
      "åĲĪéĩĳ": 3784,
      "çļĦæĥħåĨµä¸ĭ": 3785,
      "éĵ¸": 3786,
      "ä¼¤å®³": 3787,
      "è¯ĬæĸŃ": 3788,
      "æ¬£": 3789,
      "åĬŀåħ¬å®¤": 3790,
      "å°±è¦ģ": 3791,
      "è¡Ģåİĭ": 3792,
      "åį³åı¯": 3793,
      "åħ¨çľģ": 3794,
      "éĤ£ä¸ª": 3795,
      "èĩªä¿¡": 3796,
      "ä¸įå¥½": 3797,
      "è¾°": 3798,
      "å¨±ä¹Ĳ": 3799,
      "æĲ¬": 3800,
      "çł´åĿı": 3801,
      "çļĦæľįåĬ¡": 3802,
      "å°ĸ": 3803,
      "æĭĽçĶŁ": 3804,
      "å½¹": 3805,
      "æĪªèĩ³": 3806,
      "èĳ¡èĲĦ": 3807,
      "å¿Į": 3808,
      "ç¡«": 3809,
      "æĻ¯åĮº": 3810,
      "å¿§": 3811,
      "è¿Ŀæ³ķ": 3812,
      "çļĦçĥŃ": 3813,
      "çłĤ": 3814,
      "äººæ°ĳå¸ģ": 3815,
      "åħįè´¹": 3816,
      "æ·»åĬł": 3817,
      "åįĵ": 3818,
      "åıĳä½ľ": 3819,
      "å®¶çļĦ": 3820,
      "åįĬå¹´": 3821,
      "å¾ŀ": 3822,
      "ä¸ĸçķĮæĿ¯": 3823,
      "æĥħåĨµä¸ĭ": 3824,
      "è¿ĺåı¯ä»¥": 3825,
      "åĽŀåºĶ": 3826,
      "å¾Ĵ": 3827,
      "éĥ½åľ¨": 3828,
      "è¯ļä¿¡": 3829,
      "èĩªæ²»åĮº": 3830,
      "å¼ĺ": 3831,
      "ä¸Ĭä¸ĭ": 3832,
      "éªĹ": 3833,
      "çĭĹ": 3834,
      "åĪĨç±»": 3835,
      "éĵº": 3836,
      "æĤŁ": 3837,
      "æĲº": 3838,
      "è§Ĵèī²": 3839,
      "æ¦Ĥå¿µ": 3840,
      "çļĦåīį": 3841,
      "æľīåı¯èĥ½": 3842,
      "æĹ¶çļĦ": 3843,
      "å§ľ": 3844,
      "å±Ĥæ¬¡": 3845,
      "è®¨è®º": 3846,
      "å¾½": 3847,
      "ä¾ĿçĦ¶": 3848,
      "ä¿Ŀåģ¥": 3849,
      "è§Ħå¾ĭ": 3850,
      "æī°": 3851,
      "åģ¶": 3852,
      "å°ıç»Ħ": 3853,
      "äººçī©": 3854,
      "!âĢĿ": 3855,
      "çī©çĲĨ": 3856,
      "éĵ¶å±ĳ": 3857,
      "ä¸ĢåĲį": 3858,
      "èĻķ": 3859,
      "38": 3860,
      "äºĨä¸Ģä¸ª": 3861,
      "éĽĨä½ĵ": 3862,
      "è®ĵ": 3863,
      "æĪĺäºī": 3864,
      "æĦıåĳ³çĿĢ": 3865,
      "éĵ¶å±ĳçĹħ": 3866,
      "ä¸Ģè·¯": 3867,
      "çĤ¸": 3868,
      "è¿Ī": 3869,
      "ä¸Ģåı¥": 3870,
      "ç¨Ģ": 3871,
      "ä¸ĢæĿ¡": 3872,
      "ä¸įç®¡": 3873,
      "å§Ĳ": 3874,
      "è½¬åıĺ": 3875,
      "åŁĥ": 3876,
      "æĽ´ä¸º": 3877,
      "ä¸¦": 3878,
      "å®ļæľŁ": 3879,
      "ä¸ŃåĽ½åħ±äº§åħļ": 3880,
      "åĲįåŃĹ": 3881,
      "æĭĴç»Ŀ": 3882,
      "çĶµè¯Ŀ": 3883,
      "å¤įåĲĪ": 3884,
      "ç¢ĳ": 3885,
      "æĪĳåĢĳ": 3886,
      "éĥģ": 3887,
      "éĥ¨ä½į": 3888,
      "åĬłä¸Ĭ": 3889,
      "åĪĽå»º": 3890,
      "ä¼łæī¿": 3891,
      "é¢Ħè®¡": 3892,
      "æĲľ": 3893,
      "å¹¼åĦ¿": 3894,
      "å®ļä½į": 3895,
      "ç§ī": 3896,
      "åįģä¹Ŀ": 3897,
      "åĬŁæķĪ": 3898,
      "åĳ¨æľŁ": 3899,
      "ä½ľä¸ļ": 3900,
      "å·¥åİĤ": 3901,
      "å¯¹è±¡": 3902,
      "ä¼ĺèī¯": 3903,
      "çĪ¶äº²": 3904,
      "æĺ¯çĶ±": 3905,
      "æĸĩçī©": 3906,
      "æ¹ĸåĮĹ": 3907,
      "æ»¡æĦı": 3908,
      "éĺ³åħī": 3909,
      "æĺ¯æľĢ": 3910,
      "ç§Ĵ": 3911,
      "å°±åĥı": 3912,
      "å®£å¸ĥ": 3913,
      "çİ°æľī": 3914,
      "å¥¹çļĦ": 3915,
      "è¾ŀ": 3916,
      "ç¼´": 3917,
      "çľ¼çĿĽ": 3918,
      "æĮĸ": 3919,
      "å¤©æ´¥": 3920,
      "äº¿ç¾İåħĥ": 3921,
      "åĮĢ": 3922,
      "å¾Īéļ¾": 3923,
      "çĿĢåĬĽ": 3924,
      "æĦŁåıĹ": 3925,
      "åŃ¦çĶŁçļĦ": 3926,
      "éĺĢ": 3927,
      "èµĭ": 3928,
      "ç¦»å¼Ģ": 3929,
      "æľīåĵªäºĽ": 3930,
      "çīµ": 3931,
      "åıĳèĤ²": 3932,
      "å¥³äºº": 3933,
      "ä¿¡æģ¯åĮĸ": 3934,
      "å¸¦é¢Ĩ": 3935,
      "èģĮè´£": 3936,
      "æ°¸è¿ľ": 3937,
      "çĤĴ": 3938,
      "åĨľæ°ĳ": 3939,
      "èĩ´åĬĽäºİ": 3940,
      "éĢĤçĶ¨äºİ": 3941,
      "åŃ¤": 3942,
      "åħħåĪĨåıĳæĮ¥": 3943,
      "æĺĨ": 3944,
      "åĪ°åºķ": 3945,
      "éļľç¢į": 3946,
      "ä¸Ģå¤©": 3947,
      "å¯¸": 3948,
      "çĪ·": 3949,
      "ç¾½": 3950,
      "å¯ĨåĪĩ": 3951,
      "çŁ¥è¯Ĩäº§æĿĥ": 3952,
      "é¸Ł": 3953,
      "é»ĳèī²": 3954,
      "èį£èªī": 3955,
      "è»Ĭ": 3956,
      "æĢª": 3957,
      "åħ±åĴĮåĽ½": 3958,
      "åºĶçĶ¨äºİ": 3959,
      "è¯ĳ": 3960,
      "éĢĥ": 3961,
      "å·¥ä½ľäººåĳĺ": 3962,
      "æĶ¶çĽĬ": 3963,
      "èĴĤ": 3964,
      "éŁ©åĽ½": 3965,
      "é«ĺè´¨éĩıåıĳå±ķ": 3966,
      "åįĢ": 3967,
      "è°¨": 3968,
      "èľľ": 3969,
      "ä¸ĵéĹ¨": 3970,
      "è¾ĥä¸º": 3971,
      "è¸ı": 3972,
      ")(": 3973,
      "ãĢĤãĢĬ": 3974,
      "åīĬ": 3975,
      "éģ¸": 3976,
      "åł´": 3977,
      "59": 3978,
      "æ²Ī": 3979,
      "ä¹Łè¦ģ": 3980,
      "ä¹ĭä¸Ń": 3981,
      "åģ¥åħ¨": 3982,
      "åŃ¦ä½į": 3983,
      "è¾ĸ": 3984,
      "è¨Ń": 3985,
      "æĢĢåŃķ": 3986,
      "%;": 3987,
      "èĲ¥ä¸ļ": 3988,
      "ä¿Ĭ": 3989,
      "æĭĨ": 3990,
      "é³": 3991,
      "åĪ¥": 3992,
      "æĦıæĢĿ": 3993,
      "ä½ıæĪ¿": 3994,
      "å¿į": 3995,
      "ä¼ĺçĤ¹": 3996,
      "èħ¿": 3997,
      "ç»ıæµİåıĳå±ķ": 3998,
      "åĴĮç¤¾ä¼ļ": 3999,
      "2013": 4000,
      "çļĦä¸Ń": 4001,
      "çºº": 4002,
      "éĽ¾": 4003,
      "ä¿¡å¿ĥ": 4004,
      "æĮĩæķ°": 4005,
      "åĳ¨åĽ´": 4006,
      "æ¯įäº²": 4007,
      "åī²": 4008,
      "åįģå¹´": 4009,
      "çħ®": 4010,
      "é©¬åħĭæĢĿ": 4011,
      "çļĦä½¿çĶ¨": 4012,
      "çĽ¾": 4013,
      "åľ°çĲĥ": 4014,
      "å®¶åħ·": 4015,
      "æ±ģ": 4016,
      "æľĪç»ı": 4017,
      "æ»ĭ": 4018,
      "éĿĴæĺ¥": 4019,
      "å¤±åİ»": 4020,
      "å®ĺç½ĳ": 4021,
      "æĭħä»»": 4022,
      "Ġ(": 4023,
      "æĿ¥æºĲ": 4024,
      "ç¼Ŀ": 4025,
      "çĥĪçļĦ": 4026,
      "____": 4027,
      "æľĢè¿ĳ": 4028,
      "å¾Īå¥½": 4029,
      "è§ĦåĪĻ": 4030,
      "è®¤åı¯": 4031,
      "éĻķ": 4032,
      "å°Ĩåľ¨": 4033,
      "ç»ıåħ¸": 4034,
      "æµģéĩı": 4035,
      "éĥ¨ä»¶": 4036,
      "è¯´éģĵ": 4037,
      "æ»¨": 4038,
      "åľŁå£¤": 4039,
      "çĹħä¾ĭ": 4040,
      "åĮ»èį¯": 4041,
      "æĦŁè°¢": 4042,
      "ä¸ĭåįĪ": 4043,
      "ä¸ĵé¡¹": 4044,
      "æĳĩ": 4045,
      "PP": 4046,
      "ä¸ĬäºĨ": 4047,
      "çļĨ": 4048,
      "å°ıçļĦ": 4049,
      "ç³»ç»ŁçļĦ": 4050,
      "éļıåĲİ": 4051,
      "å·¥ä½ľä¸Ń": 4052,
      "ä½İäºİ": 4053,
      "ç´¯è®¡": 4054,
      "å¥ĳ": 4055,
      "è¾ĥå¤§": 4056,
      "æ¤Ĵ": 4057,
      "2012": 4058,
      "å¿«ä¹Ĳ": 4059,
      "åħĦ": 4060,
      "åıĤèĢĥ": 4061,
      "åħļä¸Ńå¤®": 4062,
      "åĽŃåĮº": 4063,
      "æŀĿ": 4064,
      "é¥±": 4065,
      "éĻµ": 4066,
      "å¦Ĥä¸ĭ": 4067,
      "éĻ¢éķ¿": 4068,
      "åħļå»º": 4069,
      "éĩįçļĦ": 4070,
      "é¢ĨåŁŁçļĦ": 4071,
      "åħ»èĢģ": 4072,
      "åħ©": 4073,
      "ä¸¤ç§į": 4074,
      "éĹ®é¢ĺçļĦ": 4075,
      "è¨Ī": 4076,
      "åĲĮæ¯Ķå¢ŀéķ¿": 4077,
      "çĸı": 4078,
      "æıĲåīį": 4079,
      "ä¸ŃåĽ½çļĦ": 4080,
      "çº½": 4081,
      "åħ³å¿ĥ": 4082,
      "åľºæ¯ĶèµĽ": 4083,
      "å½ĵä¸Ń": 4084,
      "èī²å½©": 4085,
      "èĢĥæł¸": 4086,
      "åºĶå¯¹": 4087,
      "æ¿Ģç´ł": 4088,
      "åĨ²åĩ»": 4089,
      "åĴĮè°Ĳ": 4090,
      "åįļçī©": 4091,
      "äºĮåįģå¤§": 4092,
      "èĥĢ": 4093,
      "çĶ³æĬ¥": 4094,
      "åĽ½åĨħå¤ĸ": 4095,
      "ç§įæ¤į": 4096,
      "åĽ½å®¶çº§": 4097,
      "åĩ¤": 4098,
      "å®ª": 4099,
      "å·¡": 4100,
      "å°Ŀ": 4101,
      "ä¸Ńåħ±": 4102,
      "æıĲéĨĴ": 4103,
      "å¹³æĹ¶": 4104,
      "ä¸ĵçĶ¨": 4105,
      "æĥĳ": 4106,
      "å±¥è¡Į": 4107,
      "çĲ´": 4108,
      "èĢģäºº": 4109,
      "çŃīå¥ĸ": 4110,
      "æ°´çļĦ": 4111,
      "å¾Īå®¹æĺĵ": 4112,
      "æ¨£": 4113,
      "é¬¼": 4114,
      "éķ¿æĹ¶éĹ´": 4115,
      "æ·±åº¦": 4116,
      "çłĶç©¶çĶŁ": 4117,
      "ç¬¬ä¸Ģæ¬¡": 4118,
      "88": 4119,
      "æµĨ": 4120,
      "å®ļçļĦ": 4121,
      "çªģçĦ¶": 4122,
      "åıĸå¾ĹäºĨ": 4123,
      "åĢ¡": 4124,
      "æľŁå¾ħ": 4125,
      "æĪ¿åľ°äº§": 4126,
      "æ¼Ķåĳĺ": 4127,
      "è§£éĩĬ": 4128,
      "èĢĥçĶŁ": 4129,
      "æĹģ": 4130,
      "çī§": 4131,
      "åºĶæĢ¥": 4132,
      "æŃ£è§Ħ": 4133,
      "çºł": 4134,
      "æµħ": 4135,
      "æĸ°çĸĨ": 4136,
      "èĩ³å°ĳ": 4137,
      "èĸª": 4138,
      "ä¸įéĶĻ": 4139,
      "çĽĨ": 4140,
      "åħ¨ä¼ļ": 4141,
      "æł¼å±Ģ": 4142,
      "è®ºæĸĩ": 4143,
      "éĶ¦": 4144,
      "éĶ»çĤ¼": 4145,
      "è¡Ģæ¶²": 4146,
      "åĪ¤æĸŃ": 4147,
      "çļĦä¸»": 4148,
      "ä¸Ģä½į": 4149,
      "éĥ½è¦ģ": 4150,
      "ä¿¡åı·": 4151,
      "åľ¨ä¸į": 4152,
      "34": 4153,
      "æĸ¤": 4154,
      "åī©": 4155,
      "æ©¡": 4156,
      "åħģ": 4157,
      "æĺ¯æľī": 4158,
      "ä¸Ńèį¯": 4159,
      "æĹ¶åĪ»": 4160,
      "çµĲ": 4161,
      "åįıåĲĮ": 4162,
      "75": 4163,
      "å¾ĹåĪ°äºĨ": 4164,
      "éķ¿çļĦ": 4165,
      "è¿ĺä¼ļ": 4166,
      "çļĦç²¾ç¥ŀ": 4167,
      "ç¦»åŃĲ": 4168,
      "åŃķå¦ĩ": 4169,
      "é½¿": 4170,
      "ä¸Ģä»£": 4171,
      "æ°¯": 4172,
      "å¤Ħç½ļ": 4173,
      "æĬĢæľ¯çļĦ": 4174,
      "è¥¿å®ī": 4175,
      "è¯ģåĪ¸": 4176,
      "æĴŀ": 4177,
      "æĹ©æľŁ": 4178,
      "èĤ¿çĺ¤": 4179,
      "åĽ½å¤ĸ": 4180,
      "éĶĮ": 4181,
      "éĴĻ": 4182,
      "ä¼Ļä¼´": 4183,
      "ç¨į": 4184,
      "ç«ĭåį³": 4185,
      "æĹ©å·²": 4186,
      "éŃĶ": 4187,
      "ä»°": 4188,
      "ä»¥ä¸º": 4189,
      "é«ĺç«¯": 4190,
      "ç»ŁçŃ¹": 4191,
      "åŁİä¹¡": 4192,
      "éĺħè¯»": 4193,
      "è®Ĭ": 4194,
      "çºµ": 4195,
      "å±ķè§Ī": 4196,
      "æ³ķåĽ½": 4197,
      "åŁºäºİ": 4198,
      "æ¶ĪåĮĸ": 4199,
      "åŁºç¡Ģè®¾æĸ½": 4200,
      "æĭĵå±ķ": 4201,
      "éĶĪéĴ¢": 4202,
      "åĲĲ": 4203,
      "çĸ²": 4204,
      "ç®¡éģĵ": 4205,
      "èĬ³": 4206,
      "ç»ĦåĲĪ": 4207,
      "åĻ¨çļĦ": 4208,
      "æľīæķĪçļĦ": 4209,
      "åľ°çĲĨ": 4210,
      "ç¨¿": 4211,
      "åįģåĽĽ": 4212,
      "æ¯ķä¸ļçĶŁ": 4213,
      "ä¸Ģæī¹": 4214,
      "èµ·éĩį": 4215,
      "è£ħä¿®": 4216,
      "ä¹īåĬ¡": 4217,
      "æľīåĬ©": 4218,
      "çķª": 4219,
      "æķ´åĲĪ": 4220,
      "åĽŀæĶ¶": 4221,
      "è¡¨æ¼Ķ": 4222,
      "ç§ĳæĬĢåĪĽæĸ°": 4223,
      "æĭħå½ĵ": 4224,
      "32": 4225,
      "åĬłçĽŁ": 4226,
      "åı¸æ³ķ": 4227,
      "æĶ¹éĿ©å¼ĢæĶ¾": 4228,
      "éĿ¢åĲĳ": 4229,
      "ç½ĳåıĭ": 4230,
      "èĩªåĬ¨åĮĸ": 4231,
      "ar": 4232,
      "è¤": 4233,
      "å½°": 4234,
      "ä¸Ĭæ¶¨": 4235,
      "è®¾å¤ĩçļĦ": 4236,
      "èĭ±è¯Ń": 4237,
      "æľīä¸Ģä¸ª": 4238,
      "èĩªè§ī": 4239,
      "2011": 4240,
      "éĤ¦": 4241,
      "èĭ±éĽĦ": 4242,
      "æıĴ": 4243,
      "éģĭ": 4244,
      "é¡µ": 4245,
      "å¸¦æĿ¥çļĦ": 4246,
      "åīª": 4247,
      "æµģåĬ¨": 4248,
      "æĥľ": 4249,
      "åħ¨åĬĽ": 4250,
      "èĢĮä¸į": 4251,
      "éĥ½èĥ½": 4252,
      "2010": 4253,
      "ç»ıæµİç¤¾ä¼ļ": 4254,
      "ç»´æĮģ": 4255,
      "åį°åĪ·": 4256,
      "æłĳç«ĭ": 4257,
      "å¤§æķ°æį®": 4258,
      "å¤©çļĦ": 4259,
      "å¤©ä¸ĭ": 4260,
      "åı¯ä»¥åľ¨": 4261,
      "åįģåħ«": 4262,
      "èħ°": 4263,
      "ä»ªå¼ı": 4264,
      "éĻ¶çĵ·": 4265,
      "å¤ļæł·": 4266,
      "åľ°çļĦ": 4267,
      "æ·ĺ": 4268,
      "å¹¶æ²¡æľī": 4269,
      "å¼ķè¿Ľ": 4270,
      "ä½ľèĢħ": 4271,
      "ä¸Ļ": 4272,
      "èĩŃ": 4273,
      "åħ¬çĽĬ": 4274,
      "å¦Ļ": 4275,
      "åħ¶æ¬¡": 4276,
      "æįĲ": 4277,
      "çī¹æĢ§": 4278,
      "å¨ĺ": 4279,
      "å½¢æĪĲäºĨ": 4280,
      "ç½Ĳ": 4281,
      "æĽ´æĸ°": 4282,
      "äºļæ´²": 4283,
      "æħ¢æĢ§": 4284,
      "åĬłçĥŃ": 4285,
      "åīįè¿Ľ": 4286,
      "æ··åĲĪ": 4287,
      "çļĦåİĨåı²": 4288,
      "æĿ¥åĪ°": 4289,
      "æ¢¯": 4290,
      "çºªå¿µ": 4291,
      "åħ¨å¸Ĥ": 4292,
      "æ°ĳéĹ´": 4293,
      "è®©æĪĳä»¬": 4294,
      "ç»Ŀå¯¹": 4295,
      "åĲ¦åĪĻ": 4296,
      "æĹ¥èµ·": 4297,
      "æ·Ģ": 4298,
      "æ·ĭ": 4299,
      "æĪĳä»¬è¦ģ": 4300,
      "ç±»ä¼¼": 4301,
      "åĩłå¹´": 4302,
      "å·¥èµĦ": 4303,
      "æĿŃ": 4304,
      "çĽĪ": 4305,
      "æ°¢": 4306,
      "èī¾": 4307,
      "çĻ½èī²": 4308,
      "å¹¿è¥¿": 4309,
      "å·®å¼Ĥ": 4310,
      "å°Ĭéĩį": 4311,
      "37": 4312,
      "ä»¥åīį": 4313,
      "æĪĲçļĦ": 4314,
      "è¾Ī": 4315,
      "ä½ĵä¼ļ": 4316,
      "åŁºåĽł": 4317,
      "æĲŀ": 4318,
      "æµ©": 4319,
      "æ´»åĬĽ": 4320,
      "åĬ©åĬĽ": 4321,
      "æĤ¬": 4322,
      "éħįç½®": 4323,
      "åĤ¬": 4324,
      "èĳ£äºĭéķ¿": 4325,
      "èµĶ": 4326,
      "æİĺ": 4327,
      "å¸¦åĬ¨": 4328,
      "è§Ĥå¿µ": 4329,
      "åŃ£åº¦": 4330,
      "äººç¾¤": 4331,
      "èİ²": 4332,
      "åĺ´": 4333,
      "çĶµåķĨ": 4334,
      "éĴ»": 4335,
      "æ¡Ĥ": 4336,
      "æ¸¸å®¢": 4337,
      "å²ģçļĦ": 4338,
      "ä¹Łåľ¨": 4339,
      "æİ¨åĩº": 4340,
      "å¤§éĩıçļĦ": 4341,
      "æīĵå¼Ģ": 4342,
      "å®ŀéĻħä¸Ĭ": 4343,
      "æıĲåĩºäºĨ": 4344,
      "æĮ¯åħ´": 4345,
      "çļĦçĶŁäº§": 4346,
      "åħ¬å¹³": 4347,
      "å¾Īå¿«": 4348,
      "åįģä¸ī": 4349,
      "èµ¢å¾Ĺ": 4350,
      "å¯Ħ": 4351,
      "è¾©": 4352,
      "æĸ°åĮº": 4353,
      "å½±çīĩ": 4354,
      "é«ĺä¸Ń": 4355,
      "åīĳ": 4356,
      "ä»ĸåľ¨": 4357,
      "æľºéģĩ": 4358,
      "æµ·å¤ĸ": 4359,
      "è§£åĨ³æĸ¹æ¡Ī": 4360,
      "è¯ķç®¡å©´åĦ¿": 4361,
      "å¹»": 4362,
      "ç¡®å®ŀ": 4363,
      "éĻª": 4364,
      "åı¯æĮģç»Ń": 4365,
      "æĢ»ç»ıçĲĨ": 4366,
      "åĪĿå¿ĥ": 4367,
      "çĶ·äºº": 4368,
      "ç¼ĵè§£": 4369,
      "äººæķ°": 4370,
      "åĲĪéĢĤ": 4371,
      "åĭĥ": 4372,
      "ä¸ĸçķĮä¸Ĭ": 4373,
      "éŃĤ": 4374,
      "åĬłéĩį": 4375,
      "ï¿": 4376,
      "ç®Ń": 4377,
      "å¤©æ°Ķ": 4378,
      "æĥ³åĪ°": 4379,
      "å®īåħ¨çĶŁäº§": 4380,
      "äººæ°ĳæĶ¿åºľ": 4381,
      "æ²Ĵæľī": 4382,
      "åĩĮ": 4383,
      "åĲĦä½į": 4384,
      "èĲ¥éĢł": 4385,
      "çĶŁæ´»çļĦ": 4386,
      "ç¢°": 4387,
      "è®¸åı¯": 4388,
      "éĺ²æĬ¤": 4389,
      "33": 4390,
      "mm": 4391,
      "èĥ½éĩı": 4392,
      "åŃ©åŃĲçļĦ": 4393,
      "æĸ¹ä½į": 4394,
      "ç¥¥": 4395,
      "æĦ¿æĦı": 4396,
      "åĩŃåĢŁ": 4397,
      "åĴĮåıĳå±ķ": 4398,
      "è¯´çļĦ": 4399,
      "æįŁå®³": 4400,
      "åĴĸ": 4401,
      "éº¼": 4402,
      "åı¯è§ģ": 4403,
      "çŁĽ": 4404,
      "ç´§å¼ł": 4405,
      "å·¨å¤§": 4406,
      "æĿ¥äºĨ": 4407,
      "ä¸ĭäºĨ": 4408,
      "å°Ĩä¼ļ": 4409,
      "è¯ķçĤ¹": 4410,
      "ä¸įéĶĪéĴ¢": 4411,
      "ç²¾å½©": 4412,
      "è¾ĥé«ĺ": 4413,
      "åı¤ä»£": 4414,
      "å¢ĵ": 4415,
      "å£³": 4416,
      "æīĢæľīçļĦ": 4417,
      "æľĢå¥½çļĦ": 4418,
      "å®ĹæĹ¨": 4419,
      "å¯»æī¾": 4420,
      "åĲ¹": 4421,
      "ä¸Ńæľī": 4422,
      "ä¿±ä¹Ĳ": 4423,
      "å¹¶åľ¨": 4424,
      "éĺ²æ²»": 4425,
      "çļĦéľĢæ±Ĥ": 4426,
      "æĺ¯éĿŀå¸¸": 4427,
      "åıĳåĬ¨": 4428,
      "ä¸īæĺ¯": 4429,
      "å¤įåħ´": 4430,
      "è´§å¸ģ": 4431,
      "ç¡ķå£«": 4432,
      "å¤ļåħĥ": 4433,
      "æ¯ıæ¬¡": 4434,
      "çİ©å®¶": 4435,
      "è¦ĭ": 4436,
      "æµ¸": 4437,
      "åĩºå¸Ń": 4438,
      "åĲĪæ³ķ": 4439,
      "å½¢æĢģ": 4440,
      "65": 4441,
      "å¥½å¥½": 4442,
      "ç½©": 4443,
      "çłĶç©¶éĻ¢": 4444,
      "äººæīįåŁ¹åħ»": 4445,
      "âĹ": 4446,
      "ä¸Ģç³»åĪĹ": 4447,
      "æĺ¯åĽłä¸º": 4448,
      "çĭĤ": 4449,
      "å·¥ç¨ĭå¸Ī": 4450,
      "çĻ½çĻľé£İæĤ£èĢħ": 4451,
      "æ£®æŀĹ": 4452,
      "çĽĳæİ§": 4453,
      "ãĢĭ(": 4454,
      "ä¿±ä¹Ĳéĥ¨": 4455,
      "äººåĬĽ": 4456,
      "å¼¯": 4457,
      "çī©åĵģ": 4458,
      "æĥħæĦŁ": 4459,
      "å»ºè®¾çļĦ": 4460,
      "ä½¿çĶ¨çļĦ": 4461,
      "åĳ½è¿Ĳ": 4462,
      "èº«ä¸Ĭ": 4463,
      "ä¸Ńåįİäººæ°ĳ": 4464,
      "çĿ¡çľł": 4465,
      "èĢģå¹´äºº": 4466,
      "å·¥åķĨ": 4467,
      "æĢ§è´¨": 4468,
      "åĽ½å®¶çļĦ": 4469,
      "æĿĥåĪ©": 4470,
      "åĬ¨ä½ľ": 4471,
      "èĬ¯": 4472,
      "å¸ĪçĶŁ": 4473,
      "æķ¸": 4474,
      "ç¾İå¥½": 4475,
      "ç½ĳä¸Ĭ": 4476,
      "æ¯ıä¸Ģä¸ª": 4477,
      "éĻķè¥¿": 4478,
      "åľ°ä¸ĭ": 4479,
      "åĬłéĢŁ": 4480,
      "èĢĮåľ¨": 4481,
      "åħ¶å®ĥ": 4482,
      "äº§ä¸ļéĵ¾": 4483,
      "ç«ŀäºīåĬĽ": 4484,
      "å¯¹æŃ¤": 4485,
      "æĻ°": 4486,
      "åŁİéķĩ": 4487,
      "åĽŀåĪ°": 4488,
      "39": 4489,
      "ä¸Ģæ®µ": 4490,
      "çĶŁèĤ²": 4491,
      "ä»£è°¢": 4492,
      "æŃ¤åīį": 4493,
      "æ»ļ": 4494,
      "éĶĻè¯¯": 4495,
      "49": 4496,
      "èµĦè´¨": 4497,
      "ä»Ķ": 4498,
      "åģľæŃ¢": 4499,
      "çĶŁæĢģçİ¯å¢ĥ": 4500,
      "é©±åĬ¨": 4501,
      "åįļçī©é¦Ĩ": 4502,
      "çļĦèĥ½åĬĽ": 4503,
      "äºĨæĪĳ": 4504,
      "å¸Ĥæ°ĳ": 4505,
      "æľįè£ħ": 4506,
      "æĳ¸": 4507,
      "èĤºçĤİ": 4508,
      "ï¿½": 4509,
      "å°±ä¸į": 4510,
      "åĮºåĪ«": 4511,
      "æľŁæľĽ": 4512,
      "æľįçĶ¨": 4513,
      "é©¾é©¶": 4514,
      "ç¡®è®¤": 4515,
      "èµ´": 4516,
      "å¸Ĥå§Ķ": 4517,
      "å§»": 4518,
      "ç¡®è¯Ĭ": 4519,
      "èİ·åıĸ": 4520,
      "å½ķåıĸ": 4521,
      "è´¯å½»èĲ½å®ŀ": 4522,
      "å¾¡": 4523,
      "äº§éĩı": 4524,
      "ä¸ĩåĲ¨": 4525,
      "åĻ¨æ¢°": 4526,
      "èĢĥå¯Ł": 4527,
      "åħļçļĦäºĮåįģå¤§": 4528,
      "ä¸Ńåįİäººæ°ĳåħ±åĴĮåĽ½": 4529,
      "ç§įç±»": 4530,
      "æŁĲäºĽ": 4531,
      "çļĦåŁºæľ¬": 4532,
      "å§¿": 4533,
      "æŁľ": 4534,
      "2008": 4535,
      "æĸĹäºī": 4536,
      "èŁ": 4537,
      "é¢ģ": 4538,
      "çĥĤ": 4539,
      "æĶ¹è¿Ľ": 4540,
      "èģĮä¸ļæķĻèĤ²": 4541,
      "çĶŁåŃĺ": 4542,
      "æµ·æ´ĭ": 4543,
      "æĿ¡ä¾ĭ": 4544,
      "è¿Ł": 4545,
      "æ¯ģ": 4546,
      "éĢļä¿¡": 4547,
      "çľģå§Ķ": 4548,
      "åĨ·åį´": 4549,
      "==": 4550,
      "çĦĬæİ¥": 4551,
      "çļĦä¸ĵä¸ļ": 4552,
      "çĶ¨æ°´": 4553,
      "çĸ¹": 4554,
      "ç°": 4555,
      "å»·": 4556,
      "åħļåĴĮ": 4557,
      "èĦ¾": 4558,
      "åĩºçİ°äºĨ": 4559,
      "åį±æľº": 4560,
      "åıĳè¾¾": 4561,
      "å°ĳæķ°": 4562,
      "ä¹ĭè·¯": 4563,
      "æ¡Ĩ": 4564,
      "è¿ĳæĹ¥": 4565,
      "å¸«": 4566,
      "æĪĺæĸĹ": 4567,
      "éĻĦè¿ĳ": 4568,
      "åĽ½æ°ĳ": 4569,
      "åħ¬ä¼Ĺ": 4570,
      "èģĶçĽŁ": 4571,
      "48": 4572,
      "éĽĨæĪĲ": 4573,
      "åĶ®åĲİ": 4574,
      "æľºåĻ¨äºº": 4575,
      "åĬ£": 4576,
      "ä¸įçŁ¥éģĵ": 4577,
      "åŃ¦èĢħ": 4578,
      "ä½ľé£İ": 4579,
      "æĮ¤": 4580,
      "æģ°": 4581,
      "æķ´æĶ¹": 4582,
      "æĿĥçĽĬ": 4583,
      "å¤±è´¥": 4584,
      "çºªå¾ĭ": 4585,
      "éĭ": 4586,
      "æµ¦": 4587,
      "å°ıåŃ¦": 4588,
      "éĩĮéĿ¢": 4589,
      "æ°ĶåĢĻ": 4590,
      "åĮħåĲ«": 4591,
      "ç£·": 4592,
      "çĶ¨èį¯": 4593,
      "åŁĭ": 4594,
      "åĲĪæĪĲ": 4595,
      "ç®Ģç§°": 4596,
      "å¤§å¹ħ": 4597,
      "æĹ¥åŃĲ": 4598,
      "å®ŀçİ°äºĨ": 4599,
      "å¥¥è¿Ĳ": 4600,
      "å¼ĺæī¬": 4601,
      "å¤§çº¦": 4602,
      "æ°ĽåĽ´": 4603,
      "å¼Ĺ": 4604,
      "èĢķ": 4605,
      "é»Ħéĩĳ": 4606,
      "æ¢¦æĥ³": 4607,
      "åħ¸åŀĭ": 4608,
      "çº·çº·": 4609,
      "çļĦå¤ĸ": 4610,
      "çĥŃæĥħ": 4611,
      "æĻļä¸Ĭ": 4612,
      "ä¸įå¤Ł": 4613,
      "è¿Ļå°±æĺ¯": 4614,
      "æºª": 4615,
      "çĻ¾åĪĨçĤ¹": 4616,
      "å®¶äºº": 4617,
      "æıŃ": 4618,
      "è§ĤçĤ¹": 4619,
      "ç»ĨèıĮ": 4620,
      "éĿĴå°ĳå¹´": 4621,
      "è´µå·ŀ": 4622,
      "å¥Ķ": 4623,
      "éķĢ": 4624,
      "é¤Ĳé¥®": 4625,
      "ä¸ŃåĮ»èį¯": 4626,
      "é©¬åħĭæĢĿä¸»ä¹ī": 4627,
      "ç²¾åĩĨ": 4628,
      "çĽ´åĪ°": 4629,
      "éĺ´éģĵ": 4630,
      "ä¸ĭåİ»": 4631,
      "é¡ŀ": 4632,
      "æĺİçĻ½": 4633,
      "éĹª": 4634,
      "æĭħå¿ĥ": 4635,
      "è£ķ": 4636,
      "æº«": 4637,
      "é¤Ĭ": 4638,
      "éģĹä¼ł": 4639,
      "éī´å®ļ": 4640,
      "ä¸ĵç§ĳ": 4641,
      "éĺŁçļĦ": 4642,
      "åĦ¿åŃĲ": 4643,
      "æī§æ³ķ": 4644,
      "é¸£": 4645,
      "ä¸¥éĩįçļĦ": 4646,
      "ä¸ļç»©": 4647,
      "æĸ°å¢ŀ": 4648,
      "åłĨ": 4649,
      "å¦ĩå¥³": 4650,
      "è¿ĺèĥ½": 4651,
      "å¸ĪèĮĥ": 4652,
      "éĿŀæ³ķ": 4653,
      "çŁĽçĽ¾": 4654,
      "ä¸ªçĻ¾åĪĨçĤ¹": 4655,
      "ä½ıå®ħ": 4656,
      "åĴĮåħ¶ä»ĸ": 4657,
      "èģĬ": 4658,
      "å®¡æŁ¥": 4659,
      "æĢİæł·": 4660,
      "äº§çĶŁçļĦ": 4661,
      "è§Ģ": 4662,
      "åĪĽæĦı": 4663,
      "çľĭçľĭ": 4664,
      "æİ¥ä¸ĭæĿ¥": 4665,
      "åħ±æľī": 4666,
      "èĮħ": 4667,
      "å¹²åĩĢ": 4668,
      "ãĢį,": 4669,
      "pp": 4670,
      "çŃīçº§": 4671,
      "å¼Ģæĭĵ": 4672,
      "ç«ŀèµĽ": 4673,
      "èĪŀåı°": 4674,
      "åı¦ä¸Ģæĸ¹éĿ¢": 4675,
      "éĮ": 4676,
      "åģļæ³ķ": 4677,
      "ä¼ĺåħĪ": 4678,
      "ä¾¿åĪ©": 4679,
      "åĩĿèģļ": 4680,
      "å¤§èµĽ": 4681,
      "æŁ³": 4682,
      "è®ºåĿĽ": 4683,
      "ç´§å¯Ĩ": 4684,
      "55": 4685,
      "è¬": 4686,
      "èĢ¶": 4687,
      "è´¤": 4688,
      "ä¸ĬåįĪ": 4689,
      "ç©·": 4690,
      "æĶ¶éĽĨ": 4691,
      "ä¼ĳæģ¯": 4692,
      "æ¡ĳ": 4693,
      "è®¤å®ļ": 4694,
      "ä¸ľåĮĹ": 4695,
      "æħĪ": 4696,
      "ç¦ıå»º": 4697,
      "çļĦç®¡çĲĨ": 4698,
      "çļĦé£Łçī©": 4699,
      "åĩºåıĳ": 4700,
      "æľ¬äºº": 4701,
      "åķı": 4702,
      "æ¯ıä¸ªäºº": 4703,
      "å©Ĩ": 4704,
      "ä¸īåĪĨ": 4705,
      "åı¯ä»¥è¯´": 4706,
      "æĬ¥åĲį": 4707,
      "æ¼Ĥ": 4708,
      "å°Ī": 4709,
      "ä¸ºæľ¬": 4710,
      "é«ĺäºİ": 4711,
      "è¿ĩæķı": 4712,
      "æµ·åįĹ": 4713,
      "äºĶå¹´": 4714,
      "åıįå¤į": 4715,
      "åĨĽäºĭ": 4716,
      "èŀįåħ¥": 4717,
      "çº³ç¨İ": 4718,
      "æ¢¦è§ģ": 4719,
      "æ··åĩĿ": 4720,
      "é¢ĸ": 4721,
      "æ¸¡": 4722,
      "åĨħæ¶µ": 4723,
      "èº«è¾¹": 4724,
      "è°ĥçłĶ": 4725,
      "è®°å¿Ĩ": 4726,
      "åĳ¨å¹´": 4727,
      "åĽ¾çīĩ": 4728,
      "æĲı": 4729,
      "å¤¹": 4730,
      "æ®¿": 4731,
      "çĸ«èĭĹ": 4732,
      "æĽ´å¥½åľ°": 4733,
      "æĸĩèīº": 4734,
      "ä»ĬåĲİ": 4735,
      "è§Ħå®ļçļĦ": 4736,
      "æĪĲæķĪ": 4737,
      "å°ıç¼ĸ": 4738,
      "æ£ī": 4739,
      "æķĻèĤ²éĥ¨": 4740,
      "ç§¯ç´¯": 4741,
      "æħ°": 4742,
      "éľ¸": 4743,
      "æ¢Ŀ": 4744,
      "åı°æ¹¾": 4745,
      "æ¶ĪéĻ¤": 4746,
      "å©ļå§»": 4747,
      "è¸ª": 4748,
      "æľīä»Ģä¹Ī": 4749,
      "çĽ²": 4750,
      "è¿ĩæ»¤": 4751,
      "å¸¸å¸¸": 4752,
      "çº¿ä¸Ĭ": 4753,
      "å£°éŁ³": 4754,
      "æĬĳåĪ¶": 4755,
      "æľµ": 4756,
      "è¥¿éĥ¨": 4757,
      "åł¡": 4758,
      "é¡¾å®¢": 4759,
      "çļĦåŁºç¡Ģä¸Ĭ": 4760,
      "èĤĸ": 4761,
      "ä¹Łå°±": 4762,
      "æĽ¹": 4763,
      "æĪ¿å±ĭ": 4764,
      "åłµ": 4765,
      "æ¿Ģåħī": 4766,
      "åį°åº¦": 4767,
      "èĵĦ": 4768,
      "çĨŁæĤī": 4769,
      "å·¨å¤§çļĦ": 4770,
      "åĮ¹": 4771,
      "é¢¨": 4772,
      "åķ¡": 4773,
      "ç©ºè°ĥ": 4774,
      "99": 4775,
      "éĦ": 4776,
      "ç©Ĩ": 4777,
      "è¶³å¤Ł": 4778,
      "èİ·å¾ĹäºĨ": 4779,
      "èĪĴéĢĤ": 4780,
      "å·¢": 4781,
      "è¦ģç´ł": 4782,
      "éĩĩè®¿": 4783,
      "æľīåĬ©äºİ": 4784,
      "æľīæĹ¶": 4785,
      "æħ¢æħ¢": 4786,
      "æŃ¤æĹ¶": 4787,
      "åıĺæĪĲ": 4788,
      "è¹Ī": 4789,
      "èĢĢ": 4790,
      "åĩºåİ»": 4791,
      "å®ĥæĺ¯": 4792,
      "ç§ĳåŃ¦æĬĢæľ¯": 4793,
      "çĨ±": 4794,
      "åħģè®¸": 4795,
      "åİ¦": 4796,
      "ä¸ªæĢ§": 4797,
      "è¿ĽçĲĥ": 4798,
      "ä¸§": 4799,
      "æĪĸè®¸": 4800,
      "èĭ¹": 4801,
      "é»İ": 4802,
      "åĿĩåĮĢ": 4803,
      "ç¦ģæŃ¢": 4804,
      "æµ´": 4805,
      "çĹķ": 4806,
      "æ¡¶": 4807,
      "èªį": 4808,
      "è´«åĽ°": 4809,
      "æīİå®ŀ": 4810,
      "çĸ¼çĹĽ": 4811,
      "çļĦè®¾è®¡": 4812,
      "åŃĿ": 4813,
      "åĪĨéħį": 4814,
      "æĶ¾å¼ĥ": 4815,
      "æ±Łè¥¿": 4816,
      "çĸ¾çĹħçļĦ": 4817,
      "æĶ»åĿļ": 4818,
      "ä¸įæĺĵ": 4819,
      "çĽ¸ç»ĵåĲĪ": 4820,
      "æĶ¾åħ¥": 4821,
      "æ¸©æļĸ": 4822,
      "ä¼Ĳ": 4823,
      "å¸ħ": 4824,
      "èī³": 4825,
      "çĶµèĦĳ": 4826,
      "å¾Īæľī": 4827,
      "åĻª": 4828,
      "å¥³åŃĲ": 4829,
      "èĮĥåĽ´åĨħ": 4830,
      "åĴĸåķ¡": 4831,
      "ä¸Ģå¸¦": 4832,
      "èµ«": 4833,
      "ä¹Łåı¯": 4834,
      "æĪĸæĺ¯": 4835,
      "çľĭæĿ¥": 4836,
      "çĻ¾å§ĵ": 4837,
      "åĵªéĩĮ": 4838,
      "çĸ«æĥħéĺ²æİ§": 4839,
      "åĴĮå¹³": 4840,
      "è¾¨": 4841,
      "åĿĬ": 4842,
      "åīįåĪĹ": 4843,
      "åĮ»å¸Ī": 4844,
      "éĢĤçĶ¨": 4845,
      "é¢Ħç®Ĺ": 4846,
      "ä»¥ä¸ĬçļĦ": 4847,
      "çıŃåŃĲ": 4848,
      "éłŃ": 4849,
      "æ²ĥ": 4850,
      "åĸ®": 4851,
      "è¿ĳæľŁ": 4852,
      "åºŁæ°Ķ": 4853,
      "åĩºæĿ¥çļĦ": 4854,
      "åĲįç§°": 4855,
      "åıĤè§Ĥ": 4856,
      "çĽ¸åħ³çļĦ": 4857,
      "éĢıæĺİ": 4858,
      "å¸¸è§ģçļĦ": 4859,
      "åıĳçļĦ": 4860,
      "çĶ¨éĢĶ": 4861,
      "åħ»æ®ĸ": 4862,
      "éĸĢ": 4863,
      "è¾½å®ģ": 4864,
      "58": 4865,
      "ä¸ŃåŃ¦": 4866,
      "ç²¾åº¦": 4867,
      "çłĶç©¶æīĢ": 4868,
      "éĤ»": 4869,
      "åİļçļĦ": 4870,
      "é¢Ĺç²Ĵ": 4871,
      "èĭ¹æŀľ": 4872,
      "2009": 4873,
      "éļĲæĤ£": 4874,
      "æĹłè®ºæĺ¯": 4875,
      "æĺ¨": 4876,
      "æľīå®³": 4877,
      "ä¸įçŁ¥": 4878,
      "ä¸ºå®¢æĪ·": 4879,
      "åĬĽåĴĮ": 4880,
      "ä¹Łæ²¡æľī": 4881,
      "æĻĴ": 4882,
      "æľĢæĸ°": 4883,
      "å¯Ĩåº¦": 4884,
      "å¯Ĩå°ģ": 4885,
      "çĶ·åŃĲ": 4886,
      "å±ħä½ı": 4887,
      "åºŁæ°´": 4888,
      "å®ļåĪ¶": 4889,
      "åīįå¾Ģ": 4890,
      "çĥŃæ°´": 4891,
      "åĽŀçŃĶ": 4892,
      "è¼ĥ": 4893,
      "æĮº": 4894,
      "äººæ°ĳç¾¤ä¼Ĺ": 4895,
      "ä¼ĳéĹ²": 4896,
      "400": 4897,
      "åĽ½çļĦ": 4898,
      "æĮ¡": 4899,
      "åģ·": 4900,
      "ä¼łç»ŁçļĦ": 4901,
      "åľ¨è¿Ļä¸ª": 4902,
      "éĢłåŀĭ": 4903,
      "ä»¥åħį": 4904,
      "ç«ĭè¶³": 4905,
      "æĥ³æ³ķ": 4906,
      "åĤ³": 4907,
      "éģµå®Ī": 4908,
      "çļĦåİŁåĪĻ": 4909,
      "ä¸įä½Ĩ": 4910,
      "éĥ¨éķ¿": 4911,
      "æĿĳæ°ĳ": 4912,
      "ä¸ŃéĹ´": 4913,
      "çŃĽ": 4914,
      "éľį": 4915,
      "åĪĻæĺ¯": 4916,
      "åĩıè½»": 4917,
      "ç»Īäºİ": 4918,
      "çľŁæŃ£çļĦ": 4919,
      "çĶµæľº": 4920,
      "æĽ´é«ĺ": 4921,
      "å®īå¾½": 4922,
      "æ¡Į": 4923,
      "è¥¿æĸ¹": 4924,
      "æĮĩæĮ¥": 4925,
      "æĺĤ": 4926,
      "ç¬¬åħŃ": 4927,
      "è¾ĥä½İ": 4928,
      "æīįæĺ¯": 4929,
      "æīĵåį°": 4930,
      "çĽ´æĴŃ": 4931,
      "åį°è±¡": 4932,
      "æłĳèĦĤ": 4933,
      "æĸ°æĹ¶ä»£ä¸ŃåĽ½çī¹èī²ç¤¾ä¼ļä¸»ä¹ī": 4934,
      "çĽ¸åºĶçļĦ": 4935,
      "æ©¡èĥ¶": 4936,
      "åľ¨è¿ĻéĩĮ": 4937,
      "åľºæĻ¯": 4938,
      "åįıåĬ©": 4939,
      "çļĦä¸ĢäºĽ": 4940,
      "è´§çī©": 4941,
      "åĲĮåŃ¦ä»¬": 4942,
      "æľīåĬĽ": 4943,
      "åıĳæĺİ": 4944,
      "èĩ£": 4945,
      "å¦Ĩ": 4946,
      "åĳ¨è¾¹": 4947,
      "åī¯ä¸»ä»»": 4948,
      "é¹ı": 4949,
      "ä¸įäºĨ": 4950,
      "èµļ": 4951,
      "ä¹Łè®¸": 4952,
      "éħ±": 4953,
      "å¢ŀéĢŁ": 4954,
      "ä¼łæĦŁ": 4955,
      "æ¸ħæĻ°": 4956,
      "å¥īçĮ®": 4957,
      "å¼·": 4958,
      "åŀĤ": 4959,
      "æİ¥è¿ĳ": 4960,
      "äº§ä¸ļåıĳå±ķ": 4961,
      "å½»åºķ": 4962,
      "éŀĭ": 4963,
      "è´¾": 4964,
      "ç¬¬ä¸Ģä¸ª": 4965,
      "å²Ń": 4966,
      "æĢĿè·¯": 4967,
      "çĮĽ": 4968,
      "åĽ¾ä¹¦": 4969,
      "æĬķèµĦèĢħ": 4970,
      "ç»´åº¦": 4971,
      "ç¾¤ä½ĵ": 4972,
      "æĺ¯ä¸ª": 4973,
      "ä¸įçĶ¨": 4974,
      "å®¶éĩĮ": 4975,
      "æ°´æŀľ": 4976,
      "åĿª": 4977,
      "æķ´çĲĨ": 4978,
      "åħĨ": 4979,
      "å°½å¿«": 4980,
      "è«ĭ": 4981,
      "âĢķ": 4982,
      "æĢĴ": 4983,
      "çº²": 4984,
      "è¾Ĳ": 4985,
      "è°Ĭ": 4986,
      "è½¬ç§»": 4987,
      "åº·å¤į": 4988,
      "çļĦæķĪæŀľ": 4989,
      "åįľ": 4990,
      "ä¸ºæł¸å¿ĥ": 4991,
      "åĪĨç¦»": 4992,
      "ä¸¤äºº": 4993,
      "èµĽäºĭ": 4994,
      "è¿Ŀåıį": 4995,
      "ä¸Ģä½ĵåĮĸ": 4996,
      "at": 4997,
      "çĽĴ": 4998,
      "è´º": 4999,
      "çĶ±æŃ¤": 5000,
      "åįĥä¸ĩ": 5001,
      "æ¯ķç«Ł": 5002,
      "76": 5003,
      "å¯ĵ": 5004,
      "æ°´åĪ©": 5005,
      "å¤Ħç½®": 5006,
      "å±Ģéĥ¨": 5007,
      "ä¿®å¤į": 5008,
      "æĺ¥èĬĤ": 5009,
      "èĪŀè¹Ī": 5010,
      "éļĶç¦»": 5011,
      "èľĤ": 5012,
      "èĤ¡ä»½æľīéĻĲåħ¬åı¸": 5013,
      "æ±¡æ°´å¤ĦçĲĨ": 5014,
      "ä½ĵåĨħ": 5015,
      "è·¯çº¿": 5016,
      "è¥¿çıŃ": 5017,
      "èµ°åĲĳ": 5018,
      "æĻ¯è§Ĥ": 5019,
      "èĲ¬": 5020,
      "å¼ºå¤§": 5021,
      "ä¸īå¤§": 5022,
      "åł±": 5023,
      "åįłåľ°": 5024,
      "ç¦ģåĮº": 5025,
      "åĴĮæľįåĬ¡": 5026,
      "åıĳè¨Ģ": 5027,
      "æĶ¿åįı": 5028,
      "è®²è§£": 5029,
      "å¥ĸåĬ±": 5030,
      "è¾ĵéĢģ": 5031,
      "å°İ": 5032,
      "å¤§åŃ¦çĶŁ": 5033,
      "èµ¤": 5034,
      "å¯¹æīĭ": 5035,
      "èĩªè¡Į": 5036,
      "éĢļéģĵ": 5037,
      "åħļç»Ħç»ĩ": 5038,
      "æıĲé«ĺäºĨ": 5039,
      "æľ´": 5040,
      "çĶµæ°Ķ": 5041,
      "æļĳ": 5042,
      "çĩķ": 5043,
      "å·®è·Ŀ": 5044,
      "ç§ĺä¹¦": 5045,
      "è¥¿çıŃçīĻ": 5046,
      "ä¸Ģçº§": 5047,
      "ä¸Ģæĸ¹éĿ¢": 5048,
      "å·©": 5049,
      "æĿ±": 5050,
      "æĽ°": 5051,
      "å¿ĥéĩĮ": 5052,
      "åīįæĻ¯": 5053,
      "çħĮ": 5054,
      "..": 5055,
      "çļĦä¸ŃåĽ½": 5056,
      "åĨ¶": 5057,
      "å¤§ä¼Ĺ": 5058,
      "çĶ¨æĿ¥": 5059,
      "è¿ĩäºİ": 5060,
      "æįķ": 5061,
      "æŁ´": 5062,
      "èĥĸ": 5063,
      "åħļæĶ¯éĥ¨": 5064,
      "æĥ³è±¡": 5065,
      "è®©æĪĳ": 5066,
      "æĤ¦": 5067,
      "ç§°åı·": 5068,
      "de": 5069,
      "äºŃ": 5070,
      "åİ¨": 5071,
      "åıįå¯¹": 5072,
      "åľ°åĮºçļĦ": 5073,
      "ç¶²": 5074,
      "or": 5075,
      "å¤§å°ı": 5076,
      "æĹ¥çĽĬ": 5077,
      "æĸ¯åĿ¦": 5078,
      "å¿ħçĦ¶": 5079,
      "al": 5080,
      "åļ": 5081,
      "åĩºåı°": 5082,
      "èĤ©": 5083,
      "åĽŃæŀĹ": 5084,
      "æ··åĩĿåľŁ": 5085,
      "åį¢": 5086,
      "ä¸Ĭå¹´": 5087,
      "å°±æľī": 5088,
      "æľīåħ³éĥ¨éĹ¨": 5089,
      "æµĵåº¦": 5090,
      "å¤§æ°Ķ": 5091,
      "ä¸ĬéĿ¢": 5092,
      "èĲĿ": 5093,
      "æ°ĳçĶŁ": 5094,
      "åģļäºĨ": 5095,
      "ä¸¤å¹´": 5096,
      "èĬĤçº¦": 5097,
      "è§Ĩè§ī": 5098,
      "çļĦçī¹çĤ¹": 5099,
      "æ¶¯": 5100,
      "ä½Ĩåľ¨": 5101,
      "å¼ķèµ·çļĦ": 5102,
      "è¾ħåĬ©": 5103,
      "çļĦåħ³éĶ®": 5104,
      "èĥº": 5105,
      "æ¶ĪèĢĹ": 5106,
      "èº«ä½ĵåģ¥åº·": 5107,
      "éłħ": 5108,
      "ç·ļ": 5109,
      "åŃŁ": 5110,
      "ä¼ļåľ¨": 5111,
      "åİī": 5112,
      "æĢ§æł¼": 5113,
      "é¡Į": 5114,
      "éĥ½åı¯ä»¥": 5115,
      "è¿ĺåľ¨": 5116,
      "ä¹Ļçĥ¯": 5117,
      "æ¡Īä¾ĭ": 5118,
      "ç«Ļåľ¨": 5119,
      "äºĪä»¥": 5120,
      "çļĦè´¨éĩı": 5121,
      "ç¼Ĩ": 5122,
      "çĶŁäº§çļĦ": 5123,
      "èĨı": 5124,
      "2023": 5125,
      "åĮ»çĸĹåĻ¨æ¢°": 5126,
      "æĭĸ": 5127,
      "è§£æĶ¾": 5128,
      "å¯¼åĲĳ": 5129,
      "çĹĽèĭ¦": 5130,
      "æĶ¯åĩº": 5131,
      "éŃħ": 5132,
      "çģµæ´»": 5133,
      "æķ°åŃĹåĮĸ": 5134,
      "æķ¦": 5135,
      "åĨħå¤ĸ": 5136,
      "åĽłçĤº": 5137,
      "ä¸Ģä¸ªæĸ°çļĦ": 5138,
      "ä»²": 5139,
      "æ°®": 5140,
      "é«ĺèĢĥ": 5141,
      "å¤ļå®¶": 5142,
      "åħ¬åĳĬ": 5143,
      "åłª": 5144,
      "éĴ¢éĵģ": 5145,
      "æī©æķ£": 5146,
      "68": 5147,
      "çŁ©": 5148,
      "æ¶Į": 5149,
      "æ£Ģå¯Ł": 5150,
      "å®¡æł¸": 5151,
      "å»¶éķ¿": 5152,
      "åıī": 5153,
      "åĪ°è¾¾": 5154,
      "å¤ļå¹´çļĦ": 5155,
      "èį¡": 5156,
      "æķħéļľ": 5157,
      "å¹¿ä¸ľçľģ": 5158,
      "ä¹Łå¾Ī": 5159,
      "å°±åľ¨": 5160,
      "åĲĮä¸Ģ": 5161,
      "èĬĿ": 5162,
      "ä¾Ŀæīĺ": 5163,
      "åī¯ä¹¦è®°": 5164,
      "å¯Įæľī": 5165,
      "èĤ¡ä¸ľ": 5166,
      "ä¸įå¾Ĺä¸į": 5167,
      "åĴ³": 5168,
      "ä¸ŃåĽ½äººæ°ĳ": 5169,
      "åĽ¢ä½ĵ": 5170,
      "èĤ¡ç¥¨": 5171,
      "åĮĹäº¬å¸Ĥ": 5172,
      "æİĪæĿĥ": 5173,
      "äººå·¥æĻºèĥ½": 5174,
      "ä¸Ģçº¿": 5175,
      "çŃĭ": 5176,
      "æŀª": 5177,
      "çĶµåĻ¨": 5178,
      "çĪ½": 5179,
      "éĶ¡": 5180,
      "äº§åĵģè´¨éĩı": 5181,
      "å®¢è§Ĥ": 5182,
      "éļ¾åº¦": 5183,
      "çĺ¦": 5184,
      "æĭĮ": 5185,
      "æĹ¥çļĦ": 5186,
      "è£Ŀ": 5187,
      "æī¿è¯º": 5188,
      "æ¿ĢåĬ±": 5189,
      "äººæĸĩ": 5190,
      "ä¿¡å¿µ": 5191,
      "æĢ»ç»Ł": 5192,
      "åĭĺ": 5193,
      "é¡¹çĽ®çļĦ": 5194,
      "æĺ¯ä¸Ģå®¶": 5195,
      "åĨ¬åŃ£": 5196,
      "è¡Ĺéģĵ": 5197,
      "æ¯ħ": 5198,
      "åĬ¨æĢģ": 5199,
      "éĩįéĩı": 5200,
      "æĽ´æį¢": 5201,
      "æĪĳä»¬åľ¨": 5202,
      "å¥¹ä»¬": 5203,
      "ä¸¾æİª": 5204,
      "éĽ¶åĶ®": 5205,
      "çļĦå¸Ĥåľº": 5206,
      "å¦¹": 5207,
      "é£ĺ": 5208,
      "æķĻç»ĥ": 5209,
      "æ¢¨": 5210,
      "ä¸ľåįĹ": 5211,
      "èĦ±è´«": 5212,
      "èĻ¾": 5213,
      "éĬ": 5214,
      "æĺ¯ä»¥": 5215,
      "è¦ĸ": 5216,
      "æĸ¹éĴĪ": 5217,
      "æľĢä½İ": 5218,
      "åĲĦèĩª": 5219,
      "éĺ²çģ«": 5220,
      "è®©ä½ł": 5221,
      "èĲ½åľ°": 5222,
      "æ¿Ģåıĳ": 5223,
      "èĢĲç£¨": 5224,
      "è©²": 5225,
      "æŃ£ç¡®çļĦ": 5226,
      "èĺ": 5227,
      "åĲĪçī©": 5228,
      "çĹħçļĦ": 5229,
      "æİ§èĤ¡": 5230,
      "çĪ±åĽ½": 5231,
      "è´¢å¯Į": 5232,
      "å¾®ä¿¡": 5233,
      "èµł": 5234,
      "åıĳè¡Į": 5235,
      "å®ŀçĶ¨": 5236,
      "ä¿¡ä»»": 5237,
      "åİĭç¼©": 5238,
      "çļĦåĨħå®¹": 5239,
      "çĲĨäºĭ": 5240,
      "éģĶ": 5241,
      "çĶµæºĲ": 5242,
      "å½±è§Ĩ": 5243,
      "åĽ½å®¶åĴĮ": 5244,
      "å±±è¥¿": 5245,
      "ä¸Ī": 5246,
      "éĥİ": 5247,
      "ç¾İè§Ĥ": 5248,
      "éļıæĹ¶": 5249,
      "çº³åħ¥": 5250,
      "éĢĢä¼ĳ": 5251,
      "çļĦçłĶç©¶": 5252,
      "æĺ¯å¯¹": 5253,
      "å¹´åºķ": 5254,
      "è¿Ļä¹Łæĺ¯": 5255,
      "åīĩ": 5256,
      "èģļçĦ¦": 5257,
      "ç³ĸå°¿": 5258,
      "ç§īæī¿": 5259,
      "å¤§å¸Ī": 5260,
      "çŃīåľ°": 5261,
      "çĻ½éħĴ": 5262,
      "æľªæĿ¥çļĦ": 5263,
      "ç»ĨèĬĤ": 5264,
      "çŃĸçķ¥": 5265,
      "åĬ³åĬ¨èĢħ": 5266,
      "äºĭå®ŀä¸Ĭ": 5267,
      "åģļçļĦ": 5268,
      "çĨĬ": 5269,
      "éĩĬæĶ¾": 5270,
      "çººç»ĩ": 5271,
      "ED": 5272,
      "å¸½": 5273,
      "èĥģ": 5274,
      "çĹħåĽł": 5275,
      "åıĺéĿ©": 5276,
      "85": 5277,
      "æĹ¥åħĥ": 5278,
      "åĮºçļĦ": 5279,
      "æ£ĭ": 5280,
      "å¤«å¦»": 5281,
      "æĿŃå·ŀ": 5282,
      "çļĦè§Ħå®ļ": 5283,
      "çļĦä¸ľè¥¿": 5284,
      "éģ¥": 5285,
      "æĽ´å¤§": 5286,
      "å¹¿åľº": 5287,
      "ä¸ľæĸ¹": 5288,
      "è¯»ä¹¦": 5289,
      "æĸ°æĹ¶ä»£ä¸ŃåĽ½çī¹èī²ç¤¾ä¼ļä¸»ä¹īæĢĿæĥ³": 5290,
      "çļĦçİ¯å¢ĥ": 5291,
      "ãĢģâĢľ": 5292,
      "ä¸ĢåĢĭ": 5293,
      "æĺ¯æĪĳ": 5294,
      "è®¼": 5295,
      "éĢļé£İ": 5296,
      "ä¸ĵé¢ĺ": 5297,
      "ç¼ĸåĪ¶": 5298,
      "çµ¦": 5299,
      "åıł": 5300,
      "ä¹Ķ": 5301,
      "ä¼ļå¯¼èĩ´": 5302,
      "æ²¦": 5303,
      "å¯¼æ¼Ķ": 5304,
      "æĸĩåĮĸçļĦ": 5305,
      "ä¾ĿéĿł": 5306,
      "æįŁä¼¤": 5307,
      "å¸¦æĿ¥äºĨ": 5308,
      "è¦ģæľī": 5309,
      "æ¸´": 5310,
      "è½»æĿ¾": 5311,
      "æī®": 5312,
      "èĢĮä¸įæĺ¯": 5313,
      "å¹¶éĿŀ": 5314,
      "ä¸ĵæ³¨": 5315,
      "æµģè¡Į": 5316,
      "46": 5317,
      "om": 5318,
      "ä»¥å¤ĸ": 5319,
      "ä¿±": 5320,
      "æ¯ıæĹ¥": 5321,
      "è¯ĨåĪ«": 5322,
      "äººæ°ĳæ³ķéĻ¢": 5323,
      "éĶĢéĩı": 5324,
      "åĲĮæĦı": 5325,
      "å°Ĩåħ¶": 5326,
      "è¾Ĳå°Ħ": 5327,
      "é«ĺè¾¾": 5328,
      "è¿Ľå±ķ": 5329,
      "å¼ĢåĲ¯": 5330,
      "æīĢéľĢ": 5331,
      "å§Ķæīĺ": 5332,
      "çĪ±çļĦ": 5333,
      "æĻºèĥ½åĮĸ": 5334,
      "77": 5335,
      "et": 5336,
      "å±Ī": 5337,
      "åħ¨æĸ¹ä½į": 5338,
      "æĸ°é²ľ": 5339,
      "äºĮæ°§åĮĸ": 5340,
      "æĶ¶è´¹": 5341,
      "èĽĭçĻ½è´¨": 5342,
      "å½¼æŃ¤": 5343,
      "56": 5344,
      "èģª": 5345,
      "é£İæĻ¯": 5346,
      "åħĦå¼Ł": 5347,
      "42": 5348,
      "è¡ĵ": 5349,
      "æĬĽ": 5350,
      "åľ°æĿ¿": 5351,
      "åŀ«": 5352,
      "æĽ¸": 5353,
      "æľºåºĬ": 5354,
      "å°ıè¯´": 5355,
      "å·²æľī": 5356,
      "éĢīçĶ¨": 5357,
      "ä¸ĵä¸ļæĬĢæľ¯": 5358,
      "èĳ±": 5359,
      "åħĪè¿ĽçļĦ": 5360,
      "ç¨ĭåº¦ä¸Ĭ": 5361,
      "æĭįæĳĦ": 5362,
      "å°ºå¯¸": 5363,
      "é£İæľº": 5364,
      "æ´»åĬ¨çļĦ": 5365,
      "sh": 5366,
      "ä¿Ŀåħ»": 5367,
      "éĢļæĬ¥": 5368,
      "èµ·äºĨ": 5369,
      "å®¡æī¹": 5370,
      "èį£èİ·": 5371,
      "éĤĢè¯·": 5372,
      "æľ¬è´¨": 5373,
      "æĦıéĹ´": 5374,
      "ä¸īè§Ĵ": 5375,
      "å½ĵäºĭ": 5376,
      "æ¼ł": 5377,
      "å»ºç«ĭäºĨ": 5378,
      "ä¸Ģåľº": 5379,
      "åľ°éĿ¢": 5380,
      "åŃĲå¥³": 5381,
      "æĹ¥åīį": 5382,
      "è¢Ń": 5383,
      "éļ¾é¢ĺ": 5384,
      "åı¯èĥ½æĺ¯": 5385,
      "å¨ľ": 5386,
      "æĤ¨çļĦ": 5387,
      "çļĦåĬĽéĩı": 5388,
      "æĬ¥èĢĥ": 5389,
      "åĬŁçİĩ": 5390,
      "éŁ¦": 5391,
      "åħ¨èº«": 5392,
      "å¸¸åĬ¡": 5393,
      "çº¿è·¯": 5394,
      "é¢ĦæľŁ": 5395,
      "æ¾³å¤§åĪ©": 5396,
      "ä¸Ģä»½": 5397,
      "äººåĴĮ": 5398,
      "è¦ı": 5399,
      "æĸ°åħ´": 5400,
      "éķ¿æ±Ł": 5401,
      "çĨĶ": 5402,
      "æĬĵå¥½": 5403,
      "ä¸įå¦Ĥ": 5404,
      "è¿Ļç±»": 5405,
      "æıĲåıĸ": 5406,
      "æīĢå¾Ĺ": 5407,
      "éĩĳé¢Ŀ": 5408,
      "è´¢äº§": 5409,
      "ç¼ĸè¾ĳ": 5410,
      "æµªè´¹": 5411,
      "ç²®é£Ł": 5412,
      "èµģ": 5413,
      "ä¸Ĭæľī": 5414,
      "éģ£": 5415,
      "æĽ´å¤§çļĦ": 5416,
      "å·¥ä½ľèĢħ": 5417,
      "å¼ºå¤§çļĦ": 5418,
      "éĴ¢ç®¡": 5419,
      "å¹½": 5420,
      "æ³ª": 5421,
      "å¤ļåĲĥ": 5422,
      "åĽłèĢĮ": 5423,
      "åİŁæĿĲæĸĻ": 5424,
      "å·²æĪĲä¸º": 5425,
      "æľįåĬ¡çļĦ": 5426,
      "èĪªå¤©": 5427,
      "äºı": 5428,
      "åľ¨åħ¨åĽ½": 5429,
      "æ³³": 5430,
      "çŃīå¾ħ": 5431,
      "åħ³èĬĤ": 5432,
      "åħļåı²": 5433,
      "å¥³åĦ¿": 5434,
      "éĨ«": 5435,
      "ç§Łèµģ": 5436,
      "çĶŁçĲĨ": 5437,
      "æĤł": 5438,
      "å¾ĭå¸Ī": 5439,
      "æ¾³å¤§åĪ©äºļ": 5440,
      "çļĦç¤¾ä¼ļ": 5441,
      "çļĦå®īåħ¨": 5442,
      "ä¹Łå°Ĩ": 5443,
      "ä»ĸè¯´": 5444,
      "å¤ĸè§Ĥ": 5445,
      "æĦıå¤ĸ": 5446,
      "åĲįåįķ": 5447,
      "æĹłçĸĳ": 5448,
      "çĴ°": 5449,
      "å¥ł": 5450,
      "è¿Ľç¨ĭ": 5451,
      "éĩįå¤į": 5452,
      "èĲ§": 5453,
      "éĶĲ": 5454,
      "å½ĵä»£": 5455,
      "çģ£": 5456,
      "è¾ĥé«ĺçļĦ": 5457,
      "çºªå½ķ": 5458,
      "é¸Ń": 5459,
      "66": 5460,
      "æĬĢå·§": 5461,
      "æķ°åŃ¦": 5462,
      "å¢ŀåĢ¼": 5463,
      "èµĶåģ¿": 5464,
      "åħ½": 5465,
      "éĿŀæ´²": 5466,
      "æĵħ": 5467,
      "è¯īè®¼": 5468,
      "éĥ¨çļĦ": 5469,
      "éĺ²èĮĥ": 5470,
      "éĤĵ": 5471,
      "æĻ®åıĬ": 5472,
      "78": 5473,
      "åį§": 5474,
      "åį¸": 5475,
      "æľīåºı": 5476,
      "æĪĳæł¡": 5477,
      "æ³ķå®ļ": 5478,
      "åĨħèĴĻåı¤": 5479,
      "æķ°æİ§": 5480,
      "å¡ĺ": 5481,
      "æ¨¡åŀĭ": 5482,
      "éŁ§": 5483,
      "æĴ¤": 5484,
      "æĲŃéħį": 5485,
      "95": 5486,
      "çļĦæķħäºĭ": 5487,
      "æķĪåºĶ": 5488,
      "éĺ²èħĲ": 5489,
      "æ¶Īå¤±": 5490,
      "éĿĴå²Ľ": 5491,
      "äºĴåĬ¨": 5492,
      "åİĮ": 5493,
      "æĽĿ": 5494,
      "å¿ĥæĢģ": 5495,
      "å¸ĤæĶ¿åºľ": 5496,
      "æĽ´æľī": 5497,
      "å¾Īé«ĺ": 5498,
      "èĥİåĦ¿": 5499,
      "åĢºåĬ¡": 5500,
      "è¯ŀ": 5501,
      "é«ĺåİĭ": 5502,
      "åĨħåĪĨæ³Į": 5503,
      "ç¥Ń": 5504,
      "æł¡éķ¿": 5505,
      "éħįå¤ĩ": 5506,
      "åĲĪçĲĨçļĦ": 5507,
      ":ãĢĮ": 5508,
      "çļĦè¿ĩç¨ĭä¸Ń": 5509,
      "ä¸įéľĢè¦ģ": 5510,
      "åºĻ": 5511,
      "ä¼ļéķ¿": 5512,
      "çĶ¨åĵģ": 5513,
      "æĦĽ": 5514,
      "ç³Ĭ": 5515,
      "ç´ļ": 5516,
      "èŃ°": 5517,
      "æĬĵä½ı": 5518,
      "ä¼ļåĳĺ": 5519,
      "æĢ§å¥½": 5520,
      "æĦıå¤§åĪ©": 5521,
      "ä¼łæŁĵ": 5522,
      "ç®¡çĲĨä½ĵç³»": 5523,
      "åĨĽéĺŁ": 5524,
      "150": 5525,
      "è¿ĲåĬ¨åĳĺ": 5526,
      "æĻĤéĸĵ": 5527,
      "çĩĥçĥ§": 5528,
      "ãĢĤãĢį": 5529,
      "ä¸įå¼Ģ": 5530,
      "è¿ĩåº¦": 5531,
      "ä»ĸåĢĳ": 5532,
      "ä¼ĺæĥł": 5533,
      "éĤ£æł·": 5534,
      "äºĴçĽ¸": 5535,
      "åįĬåľº": 5536,
      "æĩĪ": 5537,
      "è¯ĬçĸĹ": 5538,
      "çĽĳçĿ£ç®¡çĲĨ": 5539,
      "ä¼ª": 5540,
      "ä»İä¸ļ": 5541,
      "ç²¾åĵģ": 5542,
      "çľŁçĲĨ": 5543,
      "è¦º": 5544,
      "é«ĺæĸ°æĬĢæľ¯": 5545,
      "éĴł": 5546,
      "æķıæĦŁ": 5547,
      "çļĦåıĺåĮĸ": 5548,
      "ä¼ļçļĦ": 5549,
      "éªĳ": 5550,
      "èĩ³äºİ": 5551,
      "ä¹¦æ³ķ": 5552,
      "æķ°æį®æĺ¾ç¤º": 5553,
      "å³¡": 5554,
      "èĤĮèĤī": 5555,
      "ç¸½": 5556,
      "ä¸¢": 5557,
      "çļĦåħ³ç³»": 5558,
      "åĩºè¡Ģ": 5559,
      "ä¸įä»ħä»ħ": 5560,
      "ç¥ĸåĽ½": 5561,
      "çī¢è®°": 5562,
      "èķ´": 5563,
      "åİĺ": 5564,
      "çľ¾": 5565,
      "ç¨»": 5566,
      "åĲĮæľŁ": 5567,
      "è§£çŃĶ": 5568,
      "æ¶²ä½ĵ": 5569,
      "ç¿Ķ": 5570,
      "éģĹäº§": 5571,
      "è¿Ļä½į": 5572,
      "é«ĺè¡Ģåİĭ": 5573,
      "ç»ĵå©ļ": 5574,
      "åĿļæĮģä»¥": 5575,
      "ä»·åĢ¼è§Ĥ": 5576,
      "é£ŀè¡Į": 5577,
      "äººåĬĽèµĦæºĲ": 5578,
      "å¹´åīį": 5579,
      "å·¥äºº": 5580,
      "ä¹Łä¸įä¼ļ": 5581,
      "æ°´åĪĨ": 5582,
      "æ°´æ³¥": 5583,
      "æĹłäºº": 5584,
      "éĤª": 5585,
      "åĩºçĶŁäºİ": 5586,
      "ä¸ºä¸Ńå¿ĥ": 5587,
      "çĶµè·¯": 5588,
      "è§Ħæł¼": 5589,
      "æĬĬæĪĳä»¬": 5590,
      "æĺ¾çĦ¶": 5591,
      "çĤİçĹĩ": 5592,
      "å¸ķ": 5593,
      "ä¹ĭä¸ĭ": 5594,
      "äºĭåĬ¡": 5595,
      "ç¦½": 5596,
      "ç¤¾ä¼ļçļĦ": 5597,
      "é¢Ħæµĭ": 5598,
      "éĨī": 5599,
      "æıĲåĪ°è¿ĩ": 5600,
      "åĪ°çļĦ": 5601,
      "æīĵåĩ»": 5602,
      "è¯Ħå®¡": 5603,
      "å®ĮæĪĲäºĨ": 5604,
      "3000": 5605,
      "è¯Ī": 5606,
      "æĿĲè´¨": 5607,
      "çĭ¼": 5608,
      "åŃ¦æł¡çļĦ": 5609,
      "æī¹è¯Ħ": 5610,
      "åĪĳäºĭ": 5611,
      "å¤ªéĺ³èĥ½": 5612,
      "å¸¶": 5613,
      "ä½¿åħ¶": 5614,
      "èĥļ": 5615,
      "æį®æĤī": 5616,
      "æĳĺ": 5617,
      "å¤ªå¤ļ": 5618,
      "éŃı": 5619,
      "äºĶè¡ĮåĪĨæŀĲ": 5620,
      "æł½": 5621,
      "å¿ĥæĥħ": 5622,
      "æ°´ä¸Ń": 5623,
      "åĲĦçķĮ": 5624,
      "éĺ²æ°´": 5625,
      "åŁİåĮº": 5626,
      "å¥³åŃ©": 5627,
      "å±ĢéĿ¢": 5628,
      "æ¨¡åħ·": 5629,
      "æĿĥå¨ģ": 5630,
      "åĲīæŀĹ": 5631,
      "æĢĿèĢĥè¿Ļä¸ªéĹ®é¢ĺ": 5632,
      "IS": 5633,
      "å®ŀä½ĵ": 5634,
      "çĶµç«Ļ": 5635,
      "èµĦåĬ©": 5636,
      "å½ĵå¹´": 5637,
      "å½¢çĬ¶": 5638,
      "æĤ¨åħ«åŃĹ": 5639,
      "ä¸ĺ": 5640,
      "çµ±": 5641,
      "æ§½": 5642,
      "å®ªæ³ķ": 5643,
      "çļĦç¾İ": 5644,
      "çļĦåıĳçĶŁ": 5645,
      "æĸĮ": 5646,
      "æĺ¯ä¸įæĺ¯": 5647,
      "å¼¥": 5648,
      "å»Ĭ": 5649,
      "éĿ¢åīį": 5650,
      "éĽ¢": 5651,
      "èĮĤ": 5652,
      "éª¤": 5653,
      "åħħè¶³": 5654,
      "åĳ³éģĵ": 5655,
      "å®ĹæķĻ": 5656,
      "ä¸»ç®¡éĥ¨éĹ¨": 5657,
      "ç³ĸå°¿çĹħ": 5658,
      "åĵŃ": 5659,
      "ä¸»åĬŀ": 5660,
      "åį³å°Ĩ": 5661,
      "é¸¿": 5662,
      "ç¯Ģ": 5663,
      "åħļå§Ķä¹¦è®°": 5664,
      "çĶµè§Ĩåī§": 5665,
      "æĽ¾ç»ıæıĲåĪ°è¿ĩ": 5666,
      "éģµå¾ª": 5667,
      "è¦ģåľ¨": 5668,
      "å¤ļæķ°": 5669,
      "æľŁè´§": 5670,
      "æįŁåĿı": 5671,
      "éľī": 5672,
      "çħ§çīĩ": 5673,
      "å¨ģèĥģ": 5674,
      "ç´«å¤ĸ": 5675,
      "çĶŁæ®ĸ": 5676,
      "èµĲ": 5677,
      "æĪĲå¹´": 5678,
      "ä¸»æ¼Ķ": 5679,
      "åĪ¶åĨ·": 5680,
      "ä¿ĿåŃĺ": 5681,
      "æ°ĳèĲ¥": 5682,
      "å¸¦åĪ°äºĨ": 5683,
      "è¨±": 5684,
      "ä»ĭè´¨": 5685,
      "äºĭä¸ļåįķä½į": 5686,
      "èĩªèº«çļĦ": 5687,
      "æī¶è´«": 5688,
      "å¿ĥä¸Ń": 5689,
      "èĬ¬": 5690,
      "èĭ¯": 5691,
      "è¥¿åįĹ": 5692,
      "çĬ¹": 5693,
      "éĩįè¦ģçļĦæĺ¯": 5694,
      "è¶ħè¶Ĭ": 5695,
      "é¼ł": 5696,
      "å·©åĽº": 5697,
      "ĠâĢľ": 5698,
      "é¦Ī": 5699,
      "çĭ®": 5700,
      "æ²³åįĹçľģ": 5701,
      "è½¨éģĵ": 5702,
      "æĬ¼": 5703,
      "çŃīé¢ĨåŁŁ": 5704,
      "çĥ¤": 5705,
      "æĢ»å±Ģ": 5706,
      "æĶ¶èİ·": 5707,
      "è¡¥è´´": 5708,
      "äºĶè¡Įç¼º": 5709,
      "å¹¼åĦ¿åĽŃ": 5710,
      "æĪĲäºº": 5711,
      "æĸ¹çļĦ": 5712,
      "æ¬ł": 5713,
      "éĹ´çļĦ": 5714,
      "åįģäºĶ": 5715,
      "æ¨Ĥ": 5716,
      "åĨĽäºº": 5717,
      "å¿½è§Ĩ": 5718,
      "é»ĳèī²ç´ł": 5719,
      "å¤§éĻĨ": 5720,
      "å¥Ī": 5721,
      "éĹ¹": 5722,
      "çķı": 5723,
      "èĪ°": 5724,
      "åĲĮæĹ¶ä¹Ł": 5725,
      "èª¿": 5726,
      "éĢłæĪĲçļĦ": 5727,
      "çµĦ": 5728,
      "ä¹łè¿ĳå¹³æĸ°æĹ¶ä»£ä¸ŃåĽ½çī¹èī²ç¤¾ä¼ļä¸»ä¹īæĢĿæĥ³": 5729,
      "åľ°è´¨": 5730,
      "æ¶Ľ": 5731,
      "ç§įåŃĲ": 5732,
      "æķĻæĿĲ": 5733,
      "åĲįçļĦ": 5734,
      "éĢīæīĭ": 5735,
      "æķĻèĤ²çļĦ": 5736,
      "æŁĲç§į": 5737,
      "è¡Ķ": 5738,
      "é¢ĩ": 5739,
      "æĢ»éĥ¨": 5740,
      "èģĮèĥ½": 5741,
      "çĨ¬": 5742,
      "44": 5743,
      "âĸ": 5744,
      "æĺİæĺŁ": 5745,
      "èı©": 5746,
      "åıįèĢĮ": 5747,
      "ä¿®æĶ¹": 5748,
      "å¤ıåŃ£": 5749,
      "éĿĻçĶµ": 5750,
      "ä¸įåıĹ": 5751,
      "å¥½åĥı": 5752,
      "ä¿ĿçķĻ": 5753,
      "åı¯ä»¥éĢļè¿ĩ": 5754,
      "åĲįä¸º": 5755,
      "æııè¿°": 5756,
      "åĵ²åŃ¦": 5757,
      "çĭ¬çī¹çļĦ": 5758,
      "es": 5759,
      "ä¸įå¿ĺ": 5760,
      "çĽĹ": 5761,
      "è¿Ļéĥ¨": 5762,
      "éĥ¨éĺŁ": 5763,
      "çĥĺ": 5764,
      "2007": 5765,
      "ä¸įåľ¨": 5766,
      "ä¹ĭæīĢä»¥": 5767,
      "å§ĳ": 5768,
      "èįĴ": 5769,
      "èĤ²äºº": 5770,
      "è¢«åĳĬ": 5771,
      "åĽŀå®¶": 5772,
      "è§Ĥçľĭ": 5773,
      "è¡£æľį": 5774,
      "æ±Łèĭıçľģ": 5775,
      "çļĦéĢīæĭ©": 5776,
      "ç©´": 5777,
      "éħ¶": 5778,
      "æīįä¼ļ": 5779,
      "çĶŁäº§çº¿": 5780,
      "è¯¾åłĤ": 5781,
      "æīŃ": 5782,
      "æłª": 5783,
      "çŃĴ": 5784,
      "å¯¹æİ¥": 5785,
      "çĶµåİĭ": 5786,
      "æį®äºĨè§£": 5787,
      "æīĭç»Ń": 5788,
      "æŁ¥çľĭ": 5789,
      "éĢıéľ²": 5790,
      "çļĩå¸Ŀ": 5791,
      "çŀ¬": 5792,
      "æĽ¿ä»£": 5793,
      "li": 5794,
      "å¼Ħ": 5795,
      "çİĽ": 5796,
      "å¯¹å¾ħ": 5797,
      "æ±°": 5798,
      "åľ°çĤ¹": 5799,
      "å¾Īå°ĳ": 5800,
      "é½Ĳåħ¨": 5801,
      "ä¼łæĦŁåĻ¨": 5802,
      "åľ¨æł¡": 5803,
      "è´Łæĭħ": 5804,
      "çŃ¾è®¢": 5805,
      "å®ŀåľ¨": 5806,
      "æīĵçł´": 5807,
      "å±Ģéķ¿": 5808,
      "è®²è¿°": 5809,
      "ä½Ļäºº": 5810,
      "ä¹ĥèĩ³": 5811,
      "ä¹¾": 5812,
      "æĪĳåľ¨": 5813,
      "æĪĳå¸ĮæľĽ": 5814,
      "æĭ³": 5815,
      "å»ºéĢł": 5816,
      "å¹³ç¨³": 5817,
      "äºĮæ¬¡": 5818,
      "èĬĤçľģ": 5819,
      "é¥¼": 5820,
      "åĨįçĶŁ": 5821,
      "åģ¥èº«": 5822,
      "600": 5823,
      "éĢ»": 5824,
      "çĶ¨äºº": 5825,
      "æĭ¨": 5826,
      "å¹³å®ī": 5827,
      "æ·®": 5828,
      "æĶ¶èĹı": 5829,
      "æ¨Ļ": 5830,
      "ä½¿çĶ¨å¯¿åĳ½": 5831,
      "ç¿Ĵ": 5832,
      "çķĻä¸ĭ": 5833,
      "äººä»¬çļĦ": 5834,
      "èµ·éĩįæľº": 5835,
      "åıĶ": 5836,
      "è¿ĩçļĦ": 5837,
      "è£¡": 5838,
      "ç¤¾äº¤": 5839,
      "ä¼łéĢĴ": 5840,
      "åĽĽå¤§": 5841,
      "æĪ¿åŃĲ": 5842,
      "çĮ«": 5843,
      "è¯¸å¤ļ": 5844,
      "èĲĿåįľ": 5845,
      "æĸľ": 5846,
      "åĴĮæĬĢæľ¯": 5847,
      "æ³ķæ²»": 5848,
      "çĹĴ": 5849,
      "çĶµç¼Ĩ": 5850,
      "åİŁæľ¬": 5851,
      "å®Įç¾İ": 5852,
      "ç²¾å¿ĥ": 5853,
      "åĽºåĮĸ": 5854,
      "ä¸ĢçĶŁ": 5855,
      "è¦ģæĬĬ": 5856,
      "è½ī": 5857,
      "åĲĮäºĭ": 5858,
      "å¤ĸçķĮ": 5859,
      "è¥¿åĮĹ": 5860,
      "åŃ£èĬĤ": 5861,
      "åħįçĸ«åĬĽ": 5862,
      "çļĦè¿ĩç¨ĭ": 5863,
      "æĪĳæĥ³": 5864,
      "å®ŀä¹ł": 5865,
      "æŁı": 5866,
      "ä¾¿æĺ¯": 5867,
      "ä¸įæĸŃæıĲé«ĺ": 5868,
      "èĴľ": 5869,
      "æ¬§çĽŁ": 5870,
      "æ¶¦æ»ĳ": 5871,
      "éĢĶå¾Ħ": 5872,
      "åįĵè¶Ĭ": 5873,
      "47": 5874,
      "å¯¨": 5875,
      "åĴĮç®¡çĲĨ": 5876,
      "åħ¨å¹´": 5877,
      "åĪĨè§£": 5878,
      "å¹³çŃī": 5879,
      "æĮĩç¤º": 5880,
      "æĶ¾æĿ¾": 5881,
      "èģĮåĬ¡": 5882,
      "ç»´åº¦åİ»": 5883,
      "äººéĥ½": 5884,
      "æĢ¨": 5885,
      "çºĮ": 5886,
      "çļĦäººçĶŁ": 5887,
      "çİ°åľ¨çļĦ": 5888,
      "é¢ĳçİĩ": 5889,
      "æĶ»åĩ»": 5890,
      "ä¾ĽåºĶåķĨ": 5891,
      "åĶ®åĲİæľįåĬ¡": 5892,
      "ä¸įä¸Ģæł·": 5893,
      "ä¸»åľº": 5894,
      "ä¾ĽåºĶéĵ¾": 5895,
      "æĸ°çĶŁ": 5896,
      "åħ¬æ°ĳ": 5897,
      "éĽ£": 5898,
      "å¼ºåĪ¶": 5899,
      "ä¸ĩå¹³æĸ¹ç±³": 5900,
      "èĤ¡æĿĥ": 5901,
      "ç¤¾ä¼ļä¸»ä¹īçİ°ä»£åĮĸ": 5902,
      "åįµå·¢": 5903,
      "ä¸įç¦ģ": 5904,
      "çĶŁæ¶¯": 5905,
      "æŀ¢": 5906,
      "åĩºè¡Į": 5907,
      "å¦¨": 5908,
      "çī©èµĦ": 5909,
      "åıĺé¢ĳ": 5910,
      "æĶ¶åĪ°": 5911,
      "åĨ²çªģ": 5912,
      "ç¥¨æĪ¿": 5913,
      "ç¡¬åº¦": 5914,
      "çŃĶæ¡Ī": 5915,
      "åĪļåĪļ": 5916,
      "æ¡£æ¡Ī": 5917,
      "è¿Ļåı¥è¯ĿæĬĬæĪĳä»¬": 5918,
      "å¸¦åĪ°äºĨä¸Ģä¸ªæĸ°çļĦ": 5919,
      "çļĦæľºä¼ļ": 5920,
      "è¿ĺæ²¡æľī": 5921,
      "é»ı": 5922,
      "éĴ¢ç»ĵæŀĦ": 5923,
      "è¾ĵåĩº": 5924,
      "å¾ģç¨ĭ": 5925,
      "çļĦåºĶçĶ¨": 5926,
      "å¯¹åħ¶": 5927,
      "è¿ĽèĢĮ": 5928,
      "å¥½å¤Ħ": 5929,
      "åįıä½ľ": 5930,
      "æ¼Ķåĩº": 5931,
      "å¿ħè¦ģçļĦ": 5932,
      "å°Ŀè¯ķ": 5933,
      "5000": 5934,
      "æľŁéĻĲ": 5935,
      "æľįåĭĻ": 5936,
      "çĭĢ": 5937,
      "é£ŀæľº": 5938,
      "--------": 5939,
      "éŃħåĬĽ": 5940,
      "å¸¦åĪ°äºĨä¸Ģä¸ªæĸ°çļĦç»´åº¦åİ»": 5941,
      "åı¹": 5942,
      "åħĴ": 5943,
      "ç§©": 5944,
      "äº§èĥ½": 5945,
      "ä¾ł": 5946,
      "å°ıåĮº": 5947,
      "åħ¥åı£": 5948,
      "äº¤æį¢": 5949,
      "åıĺå½¢": 5950,
      "å¹¿æĴŃ": 5951,
      "ç¼ºçĤ¹": 5952,
      "43": 5953,
      "æ²«": 5954,
      "æĹ¶å°ļ": 5955,
      "ç³ķ": 5956,
      "æºĥ": 5957,
      "çªĿ": 5958,
      "æĿ¡ä»¶çļĦ": 5959,
      "æĿ¡ä»¶ä¸ĭ": 5960,
      "èĶ¡": 5961,
      "æĮĸæİĺ": 5962,
      "ä¸¸": 5963,
      "æĦŁåĨĴ": 5964,
      "æķ´æ²»": 5965,
      "åĬ©æĶ»": 5966,
      "ç¢º": 5967,
      "åĪĿæľŁ": 5968,
      "å¢ŀåĬłäºĨ": 5969,
      "ç¨İåĬ¡": 5970,
      "æķ£çĥŃ": 5971,
      "çĩĥæĸĻ": 5972,
      "å±±ä¸ľçľģ": 5973,
      "å¦»åŃĲ": 5974,
      "51": 5975,
      "å®´": 5976,
      "ç«Ń": 5977,
      "çİ°çĬ¶": 5978,
      "å¿ĥèĦı": 5979,
      "ç´Ħ": 5980,
      "æµģéĢļ": 5981,
      "é¾Ļæ±Ł": 5982,
      "æĹħè¡Į": 5983,
      "é²ľæĺİ": 5984,
      "52": 5985,
      "ä¸ĭè½½": 5986,
      "ç²¤": 5987,
      "å¸¸è§Ħ": 5988,
      "çľĭè§ģ": 5989,
      "åİ»éĻ¤": 5990,
      "æ¶Īæ¯Ĵ": 5991,
      "åıĤæķ°": 5992,
      "å±ĤéĿ¢": 5993,
      "æī¿åĮħ": 5994,
      "è¿Ļåı¥è¯ĿæĬĬæĪĳä»¬å¸¦åĪ°äºĨä¸Ģä¸ªæĸ°çļĦç»´åº¦åİ»": 5995,
      "äººä¸İ": 5996,
      "æĬ«": 5997,
      "æĬļ": 5998,
      "æĥ§": 5999,
      "å¤ļé¡¹": 6000,
      "è¿ĩäºĨ": 6001,
      "è¨ĺ": 6002,
      "æľīæķĪåľ°": 6003,
      "åº§è°Ī": 6004,
      "èĭıå·ŀ": 6005,
      "ä¼Łå¤§å¤įåħ´": 6006,
      "64": 6007,
      "LED": 6008,
      "åıĳåĩº": 6009,
      "èĩĤ": 6010,
      "ä¿¡ä»°": 6011,
      "åĪĿæŃ¥": 6012,
      "app": 6013,
      "è¡·": 6014,
      "å²³": 6015,
      "çľŁç©º": 6016,
      "è·µè¡Į": 6017,
      "å¦ĩç§ĳ": 6018,
      "ä¸įåĪ©": 6019,
      "åĪ¶èį¯": 6020,
      "éħµ": 6021,
      "ä»İä¸¥": 6022,
      "éĺŁåĳĺ": 6023,
      "è½¬æį¢": 6024,
      "èŃī": 6025,
      "è¯¾é¢ĺ": 6026,
      "79": 6027,
      "å¥½äºĨ": 6028,
      "çĽ¸ä¼¼": 6029,
      "å½ĵå¤©": 6030,
      "ä¾Ľç»Ļ": 6031,
      "è¶ħå£°": 6032,
      "éĢĤéĩı": 6033,
      "èŃ·": 6034,
      "é¥®æĸĻ": 6035,
      "èĵ¬": 6036,
      "å¤ıå¤©": 6037,
      "é¹¿": 6038,
      "çļĦåŃ¦ä¹ł": 6039,
      "ä¸Ģä½ĵçļĦ": 6040,
      "æĺ¯æĪĳä»¬": 6041,
      "å®ļä¹ī": 6042,
      "ç¬¬ä¸ĥ": 6043,
      "æĢ»é¢Ŀ": 6044,
      "æ£Ĵ": 6045,
      "ç¿¼": 6046,
      "ç»ıæµİç¤¾ä¼ļåıĳå±ķ": 6047,
      "ç§©åºı": 6048,
      "ch": 6049,
      "åĨħå¿ĥ": 6050,
      "éģĵçĲĨ": 6051,
      "åı£èħĶ": 6052,
      "åıĳçĶŁäºĨ": 6053,
      "æłĩåĩĨåĮĸ": 6054,
      "ä¸ĢèĪ¬æĿ¥è¯´": 6055,
      "æ±¡æ³¥": 6056,
      "è¿Ļä¸ĢçĤ¹": 6057,
      "æŃĮæĽ²": 6058,
      "ç®ĢåįķçļĦ": 6059,
      "æ·ĺæ±°": 6060,
      "çļĦæł¸å¿ĥ": 6061,
      "ç»ıè´¹": 6062,
      "æľºç»Ħ": 6063,
      "å¤ĸåĽ½": 6064,
      "çļĦä»·æł¼": 6065,
      "åľ¨å¤§": 6066,
      "äººå¿ĥ": 6067,
      "èĦĨ": 6068,
      "éĢīä¸¾": 6069,
      "åĭŁ": 6070,
      "æ¹ĺ": 6071,
      "ç¢§": 6072,
      "è¾¦": 6073,
      "ç¨±": 6074,
      "æ°´å¹³çļĦ": 6075,
      "æĲŃå»º": 6076,
      "åĲĮæŃ¥": 6077,
      "èĢĮæĪĲ": 6078,
      "åĪ©çİĩ": 6079,
      "çľĭçĿĢ": 6080,
      "è¥¿äºļ": 6081,
      "ä¼ĺå¼Ĥ": 6082,
      "åĵįåºĶ": 6083,
      "çĪ±å¥½": 6084,
      "æĵļ": 6085,
      "BA": 6086,
      "ä¼ļåĩºçİ°": 6087,
      "ä¸ĬåįĬå¹´": 6088,
      "å®¶å±ħ": 6089,
      "ç²¾å¯Ĩ": 6090,
      "ç»ĻäºĨ": 6091,
      "èıĬ": 6092,
      "è¯Ħè®º": 6093,
      "åĩıèĤ¥": 6094,
      "ä»£è¡¨å¤§ä¼ļ": 6095,
      "æİĪäºĪ": 6096,
      "ä¼ĺç§ĢçļĦ": 6097,
      "åıĳåĬ¨æľº": 6098,
      "æĺ¯å¾Ī": 6099,
      "å¤§äºİ": 6100,
      "ä¸ºæŃ¤": 6101,
      "åľ°éĵģ": 6102,
      "ç¤¾ä¼ļç»Ħç»ĩ": 6103,
      "ä½İæ¸©": 6104,
      "ç¢Ĺ": 6105,
      "ç»¿åĮĸ": 6106,
      "éĺ¶çº§": 6107,
      "å¿ĹæĦ¿èĢħ": 6108,
      "å®Ļ": 6109,
      "éģ©": 6110,
      "æıĲäº¤": 6111,
      "è¢ģ": 6112,
      "ä¸¤æ¬¡": 6113,
      "æ¨¡æĭŁ": 6114,
      "2006": 6115,
      "èģļæ°¨": 6116,
      "åİļåº¦": 6117,
      "çļĦçĽ®æłĩ": 6118,
      "åľĺ": 6119,
      "åıĳæĶ¾": 6120,
      "å¦¥": 6121,
      "è®¾æľī": 6122,
      "æĹ¥èĩ³": 6123,
      "å£ĵ": 6124,
      "è®¤çŁ¥": 6125,
      "æ¡¥æ¢ģ": 6126,
      "æĸ°èĥ½æºĲæ±½è½¦": 6127,
      "ä¸²": 6128,
      "ãĢĤãĢĤ": 6129,
      "å·¥ä¼ļ": 6130,
      "éĺĲ": 6131,
      "å¤ļå¹´æĿ¥": 6132,
      "ä¹ĭä¸º": 6133,
      "äºĮçº§": 6134,
      "åı£ç½©": 6135,
      "æĿĲæĸĻçļĦ": 6136,
      "å¾®çĶŁçī©": 6137,
      "è¿Ļåı¥è¯ĿæĬĬæĪĳä»¬å¸¦åĪ°äºĨä¸Ģä¸ªæĸ°çļĦç»´åº¦åİ»æĢĿèĢĥè¿Ļä¸ªéĹ®é¢ĺ": 6138,
      "åĨ¯": 6139,
      "æĥ©": 6140,
      "æĦŁåıĹåĪ°": 6141,
      "ç¨İæĶ¶": 6142,
      "æ¬§åĨł": 6143
    },
    "merges": [
      [
        "ä",
        "¸"
      ],
      [
        "ã",
        "Ģ"
      ],
      [
        "ç",
        "ļ"
      ],
      [
        "çļ",
        "Ħ"
      ],
      [
        "ä",
        "º"
      ],
      [
        "ãĢ",
        "Ĥ"
      ],
      [
        "æ",
        "ľ"
      ],
      [
        "å",
        "ı"
      ],
      [
        "å",
        "ħ"
      ],
      [
        "ä",
        "»"
      ],
      [
        "å",
        "¤"
      ],
      [
        "ãĢ",
        "ģ"
      ],
      [
        "å",
        "®"
      ],
      [
        "å",
        "Ī"
      ],
      [
        "ä",
        "½"
      ],
      [
        "è",
        "¿"
      ],
      [
        "ç",
        "Ķ"
      ],
      [
        "å",
        "ľ"
      ],
      [
        "å",
        "Ĳ"
      ],
      [
        "å",
        "Ĭ"
      ],
      [
        "æ",
        "ĺ"
      ],
      [
        "ç",
        "»"
      ],
      [
        "å",
        "Ľ"
      ],
      [
        "æ",
        "ĸ"
      ],
      [
        "æ",
        "Ī"
      ],
      [
        "ä",
        "¹"
      ],
      [
        "ä",
        "¼"
      ],
      [
        "ä¸",
        "Ģ"
      ],
      [
        "å",
        "¹"
      ],
      [
        "æĺ",
        "¯"
      ],
      [
        "å",
        "°"
      ],
      [
        "å",
        "Ń"
      ],
      [
        "è",
        "®"
      ],
      [
        "æ",
        "Ĺ"
      ],
      [
        "å",
        "į"
      ],
      [
        "â",
        "Ģ"
      ],
      [
        "æľ",
        "ī"
      ],
      [
        "å",
        "·"
      ],
      [
        "è",
        "¯"
      ],
      [
        "åľ",
        "¨"
      ],
      [
        "é",
        "ĩ"
      ],
      [
        "æ",
        "Ŀ"
      ],
      [
        "äº",
        "º"
      ],
      [
        "å",
        "Į"
      ],
      [
        "ä¸",
        "į"
      ],
      [
        "å",
        "¸"
      ],
      [
        "å",
        "º"
      ],
      [
        "ä¸",
        "Ń"
      ],
      [
        "å",
        "¼"
      ],
      [
        "æ",
        "ī"
      ],
      [
        "é",
        "Ģ"
      ],
      [
        "å",
        "Ĵ"
      ],
      [
        "è",
        "¡"
      ],
      [
        "å",
        "Ĩ"
      ],
      [
        "å",
        "¾"
      ],
      [
        "è",
        "Ģ"
      ],
      [
        "å",
        "¯"
      ],
      [
        "åĴ",
        "Į"
      ],
      [
        "å",
        "ĩ"
      ],
      [
        "äº",
        "Ĩ"
      ],
      [
        "æ",
        "Ģ"
      ],
      [
        "å",
        "±"
      ],
      [
        "æ",
        "ķ"
      ],
      [
        "ĥ",
        "½"
      ],
      [
        "å¤",
        "§"
      ],
      [
        "ç",
        "Ľ"
      ],
      [
        "æ",
        "Ĭ"
      ],
      [
        "æ",
        "°"
      ],
      [
        "è",
        "´"
      ],
      [
        "ä¸",
        "º"
      ],
      [
        "ç",
        "§"
      ],
      [
        "æ",
        "ł"
      ],
      [
        "åĽ",
        "½"
      ],
      [
        "è",
        "§"
      ],
      [
        "çĶ",
        "Ł"
      ],
      [
        "ä¸",
        "ļ"
      ],
      [
        "è",
        "µ"
      ],
      [
        "ç",
        "ī"
      ],
      [
        "ç",
        "İ"
      ],
      [
        "è",
        "¦"
      ],
      [
        "å",
        "¥"
      ],
      [
        "ä»",
        "¥"
      ],
      [
        "æ",
        "Ķ"
      ],
      [
        "è¦",
        "ģ"
      ],
      [
        "å",
        "¿"
      ],
      [
        "é",
        "Ļ"
      ],
      [
        "é",
        "Ŀ"
      ],
      [
        "åı",
        "ĳ"
      ],
      [
        "å¹",
        "´"
      ],
      [
        "è",
        "ĩ"
      ],
      [
        "ä¼",
        "ļ"
      ],
      [
        "å",
        "İ"
      ],
      [
        "åŃ",
        "¦"
      ],
      [
        "æ",
        "Ń"
      ],
      [
        "çĶ",
        "¨"
      ],
      [
        "ç",
        "Ĳ"
      ],
      [
        "æ",
        "³"
      ],
      [
        "ç",
        "Ń"
      ],
      [
        "å",
        "½"
      ],
      [
        "ä",
        "¿"
      ],
      [
        "è",
        "ĥ½"
      ],
      [
        "ä¸",
        "Ĭ"
      ],
      [
        "æ",
        "²"
      ],
      [
        "ä½",
        "ľ"
      ],
      [
        "å·",
        "¥"
      ],
      [
        "é",
        "Ĺ"
      ],
      [
        "ç",
        "º"
      ],
      [
        "å",
        "ĳ"
      ],
      [
        "æ",
        "µ"
      ],
      [
        "æ",
        "İ"
      ],
      [
        "ä¸",
        "ª"
      ],
      [
        "æ",
        "ŀ"
      ],
      [
        "æĹ",
        "¶"
      ],
      [
        "æĪ",
        "Ĳ"
      ],
      [
        "âĢ",
        "ľ"
      ],
      [
        "âĢ",
        "Ŀ"
      ],
      [
        "å",
        "ĵ"
      ],
      [
        "è¿",
        "Ļ"
      ],
      [
        "è¡",
        "Į"
      ],
      [
        "åı",
        "¯"
      ],
      [
        "é",
        "¢"
      ],
      [
        "æĪ",
        "ĳ"
      ],
      [
        "åĪ",
        "°"
      ],
      [
        "æ",
        "¯"
      ],
      [
        "å¯",
        "¹"
      ],
      [
        "åĩ",
        "º"
      ],
      [
        "æ",
        "Į"
      ],
      [
        "é",
        "«"
      ],
      [
        "è",
        "¾"
      ],
      [
        "é",
        "ĺ"
      ],
      [
        "å",
        "Ł"
      ],
      [
        "æ",
        "ĥ"
      ],
      [
        "çĲ",
        "Ĩ"
      ],
      [
        "ç",
        "ľ"
      ],
      [
        "äº",
        "İ"
      ],
      [
        "å®",
        "¶"
      ],
      [
        "é«",
        "ĺ"
      ],
      [
        "å",
        "ī"
      ],
      [
        "äº",
        "§"
      ],
      [
        "æĿ",
        "¥"
      ],
      [
        "åĮ",
        "ĸ"
      ],
      [
        "è",
        "Ĥ"
      ],
      [
        "å¤",
        "ļ"
      ],
      [
        "æ",
        "±"
      ],
      [
        "åľ",
        "°"
      ],
      [
        "çŃ",
        "ī"
      ],
      [
        "æ",
        "Ħ"
      ],
      [
        "æ",
        "ĭ"
      ],
      [
        "æĸ",
        "¹"
      ],
      [
        "åĬ",
        "Ľ"
      ],
      [
        "åħ",
        "¨"
      ],
      [
        "åĪ",
        "Ĩ"
      ],
      [
        "æĸ",
        "°"
      ],
      [
        "é",
        "ģ"
      ],
      [
        "æĢ",
        "§"
      ],
      [
        "è¿",
        "Ľ"
      ],
      [
        "è",
        "½"
      ],
      [
        "èĩ",
        "ª"
      ],
      [
        "ä½",
        "ĵ"
      ],
      [
        "å",
        "»"
      ],
      [
        "ä",
        "¾"
      ],
      [
        "åĬ",
        "¨"
      ],
      [
        "æ",
        "´"
      ],
      [
        "ç",
        "®"
      ],
      [
        "ç",
        "«"
      ],
      [
        "ç»",
        "ı"
      ],
      [
        "æ",
        "¸"
      ],
      [
        "å®",
        "ŀ"
      ],
      [
        "åħ",
        "¬"
      ],
      [
        "ä»",
        "¬"
      ],
      [
        "è¿",
        "ĩ"
      ],
      [
        "ä¹",
        "Ł"
      ],
      [
        "çİ",
        "°"
      ],
      [
        "å",
        "¦"
      ],
      [
        "é",
        "ĥ"
      ],
      [
        "ç",
        "¨"
      ],
      [
        "å°",
        "±"
      ],
      [
        "åĲ",
        "Ī"
      ],
      [
        "é",
        "ķ"
      ],
      [
        "åĲ",
        "İ"
      ],
      [
        "å±",
        "ķ"
      ],
      [
        "ä¸",
        "»"
      ],
      [
        "ä¸",
        "ĭ"
      ],
      [
        "åĵ",
        "ģ"
      ],
      [
        "å",
        "ģ"
      ],
      [
        "é",
        "£"
      ],
      [
        "ç",
        "Ļ"
      ],
      [
        "æ",
        "¬"
      ],
      [
        "éĿ",
        "¢"
      ],
      [
        "ç",
        "Ĥ"
      ],
      [
        "æ",
        "ı"
      ],
      [
        "éĩ",
        "į"
      ],
      [
        "æ",
        "Ľ"
      ],
      [
        "ä»",
        "ĸ"
      ],
      [
        "å»",
        "º"
      ],
      [
        "è",
        "ī"
      ],
      [
        "å¥",
        "½"
      ],
      [
        "å®",
        "ļ"
      ],
      [
        "åĲ",
        "Į"
      ],
      [
        "ç",
        "½"
      ],
      [
        "ä¸",
        "İ"
      ],
      [
        "æľ",
        "º"
      ],
      [
        "éĥ",
        "¨"
      ],
      [
        "é",
        "¡"
      ],
      [
        "è®",
        "¾"
      ],
      [
        "åĬ",
        "ł"
      ],
      [
        "å¿",
        "ĥ"
      ],
      [
        "æ°",
        "´"
      ],
      [
        "åº",
        "¦"
      ],
      [
        "æ³",
        "ķ"
      ],
      [
        "å¸",
        "Ĥ"
      ],
      [
        "ç",
        "¤"
      ],
      [
        "å¼",
        "Ģ"
      ],
      [
        "èĢ",
        "Į"
      ],
      [
        "ä¹",
        "ĭ"
      ],
      [
        "é",
        "Ľ"
      ],
      [
        "è",
        "ģ"
      ],
      [
        "æľ",
        "¬"
      ],
      [
        "å",
        "¢"
      ],
      [
        "æ",
        "Ļ"
      ],
      [
        "ç",
        "Ĺ"
      ],
      [
        "åĪ",
        "¶"
      ],
      [
        "åħ",
        "¶"
      ],
      [
        "åŃ",
        "Ĳ"
      ],
      [
        "éĩ",
        "ı"
      ],
      [
        "èĢ",
        "ħ"
      ],
      [
        "è",
        "¶"
      ],
      [
        "ç",
        "ĸ"
      ],
      [
        "2",
        "0"
      ],
      [
        "å",
        "Ģ"
      ],
      [
        "å¾",
        "Ĺ"
      ],
      [
        "éķ",
        "¿"
      ],
      [
        "è",
        "·"
      ],
      [
        "å¦",
        "Ĥ"
      ],
      [
        "æı",
        "Ĳ"
      ],
      [
        "çī",
        "©"
      ],
      [
        "ç",
        "¬"
      ],
      [
        "ç",
        "Ł"
      ],
      [
        "ç",
        "¾"
      ],
      [
        "å",
        "Ŀ"
      ],
      [
        "åĬ",
        "¡"
      ],
      [
        "æī",
        "Ģ"
      ],
      [
        "åı",
        "Ĭ"
      ],
      [
        "è",
        "°"
      ],
      [
        "æĹ",
        "¥"
      ],
      [
        "ä¿",
        "Ŀ"
      ],
      [
        "æ",
        "¶"
      ],
      [
        "åī",
        "į"
      ],
      [
        "åħ",
        "³"
      ],
      [
        "é",
        "ļ"
      ],
      [
        "çĶ",
        "µ"
      ],
      [
        "äº",
        "ĭ"
      ],
      [
        "åº",
        "Ķ"
      ],
      [
        "éĢ",
        "ļ"
      ],
      [
        "ç",
        "Ŀ"
      ],
      [
        "é",
        "ĥ½"
      ],
      [
        "ç®",
        "¡"
      ],
      [
        "æ",
        "į"
      ],
      [
        "åĨ",
        "ħ"
      ],
      [
        "åľ",
        "º"
      ],
      [
        "ç",
        "³"
      ],
      [
        "ç§",
        "į"
      ],
      [
        "ç",
        "ł"
      ],
      [
        "å°",
        "ı"
      ],
      [
        "æĸ",
        "ĩ"
      ],
      [
        "æľ",
        "Ī"
      ],
      [
        "æķ",
        "Ļ"
      ],
      [
        "åĽ",
        "ł"
      ],
      [
        "ç",
        "ķ"
      ],
      [
        "å",
        "§"
      ],
      [
        "èµ",
        "Ħ"
      ],
      [
        "è",
        "Ĭ"
      ],
      [
        "æĥ",
        "ħ"
      ],
      [
        "ç",
        "Ħ"
      ],
      [
        "ç",
        "²"
      ],
      [
        "ç",
        "©"
      ],
      [
        "ç",
        "´"
      ],
      [
        "è",
        "Ĳ"
      ],
      [
        "æĬ",
        "Ģ"
      ],
      [
        "ç¨",
        "ĭ"
      ],
      [
        "åĮ",
        "º"
      ],
      [
        "æľ",
        "Ģ"
      ],
      [
        "å¤",
        "ĸ"
      ],
      [
        "ç§",
        "ĳ"
      ],
      [
        "å¹",
        "³"
      ],
      [
        "ç",
        "ĥ"
      ],
      [
        "æ",
        "Ł"
      ],
      [
        "é",
        "ħ"
      ],
      [
        "åıĳ",
        "å±ķ"
      ],
      [
        "æĽ",
        "´"
      ],
      [
        "æ°",
        "ĳ"
      ],
      [
        "é",
        "ľ"
      ],
      [
        "çĽ",
        "®"
      ],
      [
        "æľ",
        "¯"
      ],
      [
        "å¤",
        "©"
      ],
      [
        "çĽ",
        "¸"
      ],
      [
        "è´",
        "¨"
      ],
      [
        "ä½",
        "į"
      ],
      [
        "å·¥",
        "ä½ľ"
      ],
      [
        "æĦ",
        "ı"
      ],
      [
        "éĹ",
        "´"
      ],
      [
        "åĳ",
        "ĺ"
      ],
      [
        "åħ",
        "¥"
      ],
      [
        "ä¸Ń",
        "åĽ½"
      ],
      [
        "Ĥ",
        "£"
      ],
      [
        "å°",
        "Ĩ"
      ],
      [
        "å¸",
        "¸"
      ],
      [
        "æľ",
        "Ł"
      ],
      [
        "ç",
        "¡"
      ],
      [
        "ä»",
        "£"
      ],
      [
        "æ¯",
        "Ķ"
      ],
      [
        "è¡",
        "¨"
      ],
      [
        "ç",
        "±"
      ],
      [
        "çĤ",
        "¹"
      ],
      [
        "ä½",
        "¿"
      ],
      [
        "ç³",
        "»"
      ],
      [
        "æĶ",
        "¿"
      ],
      [
        "å¾",
        "Ī"
      ],
      [
        "é",
        "Ķ"
      ],
      [
        "å¼",
        "º"
      ],
      [
        "å®",
        "ī"
      ],
      [
        "ä¸",
        "ī"
      ],
      [
        "è¯",
        "´"
      ],
      [
        "ç¬",
        "¬"
      ],
      [
        "è",
        "ĥ"
      ],
      [
        "åı",
        "¸"
      ],
      [
        "è¿",
        "ĺ"
      ],
      [
        "æ",
        "·"
      ],
      [
        "éģ",
        "ĵ"
      ],
      [
        "çī",
        "¹"
      ],
      [
        "æ´",
        "»"
      ],
      [
        "éĩ",
        "ĳ"
      ],
      [
        "ä¼",
        "ģ"
      ],
      [
        "å½",
        "ĵ"
      ],
      [
        "æŀ",
        "ľ"
      ],
      [
        "èµ",
        "·"
      ],
      [
        "è",
        "į"
      ],
      [
        "ä»",
        "İ"
      ],
      [
        "æ²",
        "»"
      ],
      [
        "æ¬",
        "¡"
      ],
      [
        "åı¯",
        "ä»¥"
      ],
      [
        "å¹",
        "¶"
      ],
      [
        "çĿ",
        "Ģ"
      ],
      [
        "æ",
        "ģ"
      ],
      [
        "æĺ",
        "İ"
      ],
      [
        "ç",
        "¥"
      ],
      [
        "æŃ",
        "¤"
      ],
      [
        "çĦ",
        "¶"
      ],
      [
        "è",
        "Ī"
      ],
      [
        "ä½",
        "Ĩ"
      ],
      [
        "åĪ",
        "©"
      ],
      [
        "ä¸",
        "ĵ"
      ],
      [
        "æĪĳ",
        "ä»¬"
      ],
      [
        "ä¿",
        "¡"
      ],
      [
        "ãĢ",
        "ĭ"
      ],
      [
        "è®",
        "¡"
      ],
      [
        "ãĢ",
        "Ĭ"
      ],
      [
        "é",
        "Ĵ"
      ],
      [
        "åĲ",
        "Ħ"
      ],
      [
        "åĲ",
        "į"
      ],
      [
        "æĪ",
        "ĸ"
      ],
      [
        "åħ¬",
        "åı¸"
      ],
      [
        "æľ",
        "į"
      ],
      [
        "åŁ",
        "º"
      ],
      [
        "æķ",
        "°"
      ],
      [
        "é£",
        "İ"
      ],
      [
        "é",
        "ĵ"
      ],
      [
        "ä¼ģ",
        "ä¸ļ"
      ],
      [
        "ç¾",
        "İ"
      ],
      [
        "æĮ",
        "ģ"
      ],
      [
        "äº",
        "Ľ"
      ],
      [
        "éĻ",
        "¢"
      ],
      [
        "çĹ",
        "ħ"
      ],
      [
        "å¼",
        "ı"
      ],
      [
        "ä¸Ģ",
        "ä¸ª"
      ],
      [
        "æĹ",
        "ł"
      ],
      [
        "ä½",
        "ł"
      ],
      [
        "è§",
        "£"
      ],
      [
        "é",
        "¦"
      ],
      [
        "ç",
        "ģ"
      ],
      [
        "èĤ",
        "²"
      ],
      [
        "è",
        "ĭ"
      ],
      [
        "æŃ",
        "£"
      ],
      [
        "è§",
        "Ħ"
      ],
      [
        "åħ",
        "ļ"
      ],
      [
        "è",
        "£"
      ],
      [
        "ç»",
        "ĵ"
      ],
      [
        "å",
        "ķ"
      ],
      [
        "éľ",
        "Ģ"
      ],
      [
        "è",
        "¢"
      ],
      [
        "ç¤",
        "¾"
      ],
      [
        "æ",
        "º"
      ],
      [
        "åĮ",
        "»"
      ],
      [
        "èī",
        "²"
      ],
      [
        "éĢ",
        "ł"
      ],
      [
        "ç",
        "¼"
      ],
      [
        "è",
        "º"
      ],
      [
        "å¯",
        "¼"
      ],
      [
        "å",
        "ŀ"
      ],
      [
        "äº",
        "Į"
      ],
      [
        "å",
        "ĸ"
      ],
      [
        "é¢",
        "ĺ"
      ],
      [
        "æ",
        "¡"
      ],
      [
        "ç»",
        "Ł"
      ],
      [
        "ä»",
        "»"
      ],
      [
        "åģ",
        "ļ"
      ],
      [
        "å",
        "£"
      ],
      [
        "0",
        "0"
      ],
      [
        "é¡",
        "¹"
      ],
      [
        "éĩ",
        "Į"
      ],
      [
        "ç",
        "Ī"
      ],
      [
        "æ±",
        "Ĥ"
      ],
      [
        "åħ",
        "·"
      ],
      [
        "æ°",
        "Ķ"
      ],
      [
        "åĪ",
        "Ľ"
      ],
      [
        "æµ",
        "ģ"
      ],
      [
        "çľ",
        "ĭ"
      ],
      [
        "ç",
        "¦"
      ],
      [
        "å¤",
        "Ħ"
      ],
      [
        "åį",
        "ģ"
      ],
      [
        "å¢",
        "ŀ"
      ],
      [
        "æł",
        "ĩ"
      ],
      [
        "èº",
        "«"
      ],
      [
        "æĦ",
        "Ł"
      ],
      [
        "è¿",
        "Ĳ"
      ],
      [
        "è",
        "Ħ"
      ],
      [
        "çĶ",
        "±"
      ],
      [
        "çł",
        "Ķ"
      ],
      [
        "æķ",
        "Ī"
      ],
      [
        "åħ",
        "ĥ"
      ],
      [
        "ç«",
        "ĭ"
      ],
      [
        "æį",
        "®"
      ],
      [
        "æİ",
        "¥"
      ],
      [
        "åİ",
        "»"
      ],
      [
        "ä¹",
        "Ī"
      ],
      [
        "æĥ",
        "³"
      ],
      [
        "æł",
        "¡"
      ],
      [
        "æł",
        "·"
      ],
      [
        "ç²",
        "¾"
      ],
      [
        "ç»",
        "Ħ"
      ],
      [
        "éĹ",
        "®"
      ],
      [
        "ç½",
        "ĳ"
      ],
      [
        "è½",
        "¦"
      ],
      [
        "ä¼",
        "ł"
      ],
      [
        "æī",
        "ĭ"
      ],
      [
        "æĸ",
        "Ļ"
      ],
      [
        "æĬĢ",
        "æľ¯"
      ],
      [
        "è¢",
        "«"
      ],
      [
        "åİ",
        "Ł"
      ],
      [
        "è",
        "Į"
      ],
      [
        "çĻ",
        "½"
      ],
      [
        "å·",
        "±"
      ],
      [
        "çĲ",
        "ĥ"
      ],
      [
        "åĲ",
        "ĳ"
      ],
      [
        "æ",
        "»"
      ],
      [
        "éĹ",
        "¨"
      ],
      [
        "ä»",
        "¶"
      ],
      [
        "æĢ",
        "»"
      ],
      [
        "å·",
        "²"
      ],
      [
        "æ²",
        "¡"
      ],
      [
        "é¢",
        "Ĩ"
      ],
      [
        "é",
        "ª"
      ],
      [
        "è",
        "¥"
      ],
      [
        "å½",
        "¢"
      ],
      [
        "åı",
        "Ĺ"
      ],
      [
        "äº",
        "¤"
      ],
      [
        "åķ",
        "Ĩ"
      ],
      [
        "è·",
        "¯"
      ],
      [
        "èĩª",
        "å·±"
      ],
      [
        "è¥",
        "¿"
      ],
      [
        "æµ",
        "·"
      ],
      [
        "çº",
        "§"
      ],
      [
        "å¤",
        "ĩ"
      ],
      [
        "æł",
        "¼"
      ],
      [
        "åħ",
        "±"
      ],
      [
        "å½",
        "±"
      ],
      [
        "åŀ",
        "ĭ"
      ],
      [
        "çİ",
        "¯"
      ],
      [
        "é",
        "»"
      ],
      [
        "ç±",
        "»"
      ],
      [
        "çŁ",
        "¥"
      ],
      [
        "æľį",
        "åĬ¡"
      ],
      [
        "ä¸",
        "¤"
      ],
      [
        "åĽ½",
        "å®¶"
      ],
      [
        "ç®¡",
        "çĲĨ"
      ],
      [
        "ä¸",
        "ĩ"
      ],
      [
        "çľ",
        "ģ"
      ],
      [
        "ä¼",
        "ĺ"
      ],
      [
        "éĽ",
        "Ĩ"
      ],
      [
        "åı",
        "ĺ"
      ],
      [
        "æ",
        "£"
      ],
      [
        "å°",
        "ĳ"
      ],
      [
        "åħ",
        "Ī"
      ],
      [
        "å",
        "Ļ"
      ],
      [
        "éĺ",
        "Ł"
      ],
      [
        "é",
        "Ĥ£"
      ],
      [
        "åį",
        "ķ"
      ],
      [
        "æİ",
        "¨"
      ],
      [
        "å±",
        "±"
      ],
      [
        "è¿Ľ",
        "è¡Į"
      ],
      [
        "é",
        "©"
      ],
      [
        "å¸",
        "Ī"
      ],
      [
        "æĶ",
        "¹"
      ],
      [
        "äº§",
        "åĵģ"
      ],
      [
        "è°",
        "ĥ"
      ],
      [
        "èģ",
        "Ķ"
      ],
      [
        "èĩ",
        "³"
      ],
      [
        "çĸ",
        "Ĺ"
      ],
      [
        "æĶ",
        "¶"
      ],
      [
        "è",
        "İ"
      ],
      [
        "ç¤¾",
        "ä¼ļ"
      ],
      [
        "é£",
        "Ł"
      ],
      [
        "éĺ",
        "²"
      ],
      [
        "å¹",
        "¿"
      ],
      [
        "æ·",
        "±"
      ],
      [
        "æĬ",
        "¥"
      ],
      [
        "åı",
        "£"
      ],
      [
        "ä¹",
        "ł"
      ],
      [
        "æ",
        "®"
      ],
      [
        "è¾",
        "ĥ"
      ],
      [
        "ç¤",
        "º"
      ],
      [
        "æŀ",
        "Ħ"
      ],
      [
        "åı",
        "ª"
      ],
      [
        "å®",
        "Į"
      ],
      [
        "æ",
        "¢"
      ],
      [
        "åį",
        "Ĺ"
      ],
      [
        "æĮ",
        "ĩ"
      ],
      [
        "æº",
        "Ĳ"
      ],
      [
        "è",
        "Ļ"
      ],
      [
        "ä¾",
        "Ľ"
      ],
      [
        "ä¸",
        "ĸ"
      ],
      [
        "æĶ",
        "¾"
      ],
      [
        "å»º",
        "è®¾"
      ],
      [
        "æ",
        "¨"
      ],
      [
        "æ³",
        "¨"
      ],
      [
        "åĻ",
        "¨"
      ],
      [
        "åı",
        "ĸ"
      ],
      [
        "è®",
        "¤"
      ],
      [
        "æī",
        "į"
      ],
      [
        "ä¸",
        "ľ"
      ],
      [
        "èµ",
        "Ľ"
      ],
      [
        "æĸ",
        "½"
      ],
      [
        "è¾",
        "¾"
      ],
      [
        "èĲ",
        "¥"
      ],
      [
        "èĢ",
        "ģ"
      ],
      [
        "çº",
        "¿"
      ],
      [
        "éĢ",
        "ī"
      ],
      [
        "ä¹",
        "¦"
      ],
      [
        "çĥ",
        "Ń"
      ],
      [
        "è£",
        "ħ"
      ],
      [
        "éĿ",
        "ŀ"
      ],
      [
        "å¸",
        "¦"
      ],
      [
        "èĢ",
        "ĥ"
      ],
      [
        "åĮ",
        "Ĺ"
      ],
      [
        "åŁ",
        "İ"
      ],
      [
        "æ",
        "¼"
      ],
      [
        "è®",
        "©"
      ],
      [
        "è®",
        "°"
      ],
      [
        "èĬ",
        "Ĥ"
      ],
      [
        "ç¡",
        "®"
      ],
      [
        "æĪ",
        "ĺ"
      ],
      [
        "å®",
        "¹"
      ],
      [
        "åĽ",
        "Ľ"
      ],
      [
        "æ¯",
        "ı"
      ],
      [
        "ä»",
        "·"
      ],
      [
        "è¿",
        "ĳ"
      ],
      [
        "ç¥",
        "ŀ"
      ],
      [
        "æĿ",
        "¡"
      ],
      [
        "éĹ®",
        "é¢ĺ"
      ],
      [
        "è¯",
        "ģ"
      ],
      [
        "åĪ",
        "«"
      ],
      [
        "åĩ",
        "Ĩ"
      ],
      [
        "çķ",
        "Į"
      ],
      [
        "åı",
        "°"
      ],
      [
        "åħ",
        "ī"
      ],
      [
        "æī",
        "ĵ"
      ],
      [
        "ç´",
        "ł"
      ],
      [
        "æµ",
        "İ"
      ],
      [
        "åĨ",
        "³"
      ],
      [
        "æķĻ",
        "èĤ²"
      ],
      [
        "è",
        "±"
      ],
      [
        "æĺ",
        "ĵ"
      ],
      [
        "æĬ",
        "¤"
      ],
      [
        "å¢",
        "ĥ"
      ],
      [
        "äº",
        "Ķ"
      ],
      [
        "åĽ",
        "¢"
      ],
      [
        "æ²¡",
        "æľī"
      ],
      [
        "å§",
        "Ķ"
      ],
      [
        "çĽ",
        "´"
      ],
      [
        "ç",
        "Ĭ"
      ],
      [
        "æŃ",
        "¥"
      ],
      [
        "æķ",
        "´"
      ],
      [
        "è",
        "ħ"
      ],
      [
        "å",
        "²"
      ],
      [
        "çľ",
        "Ł"
      ],
      [
        "ä½",
        "İ"
      ],
      [
        "æ¸",
        "ħ"
      ],
      [
        "20",
        "1"
      ],
      [
        "å¥",
        "³"
      ],
      [
        "åĽ",
        "ŀ"
      ],
      [
        "åĬ",
        "Ł"
      ],
      [
        "ä¹",
        "ī"
      ],
      [
        "è§",
        "Ĥ"
      ],
      [
        "ç",
        "ħ"
      ],
      [
        "å",
        "Ķ"
      ],
      [
        "æĬ",
        "Ĭ"
      ],
      [
        "å±",
        "Ģ"
      ],
      [
        "æĢ",
        "Ŀ"
      ],
      [
        "æĶ",
        "¯"
      ],
      [
        "ä½¿",
        "çĶ¨"
      ],
      [
        "èģ",
        "Į"
      ],
      [
        "åħ",
        "»"
      ],
      [
        "åĬ",
        "ŀ"
      ],
      [
        "æĬ",
        "ķ"
      ],
      [
        "ç»",
        "Ļ"
      ],
      [
        "éľĢ",
        "è¦ģ"
      ],
      [
        "æĿ",
        "Ĳ"
      ],
      [
        "çĶŁ",
        "äº§"
      ],
      [
        "ç©",
        "¶"
      ],
      [
        "éĻ",
        "ħ"
      ],
      [
        "æĪ",
        "·"
      ],
      [
        "å",
        "ĭ"
      ],
      [
        "å¼",
        "ķ"
      ],
      [
        "ç»ı",
        "æµİ"
      ],
      [
        "åĬ",
        "©"
      ],
      [
        "è´",
        "¹"
      ],
      [
        "å®",
        "ĥ"
      ],
      [
        "å¤",
        "´"
      ],
      [
        "èį",
        "¯"
      ],
      [
        "åĮ",
        "ħ"
      ],
      [
        "å¸Ĥ",
        "åľº"
      ],
      [
        "è§",
        "Ĩ"
      ],
      [
        "æ¶",
        "Ī"
      ],
      [
        "ç©",
        "º"
      ],
      [
        "é",
        "¥"
      ],
      [
        "æģ",
        "¯"
      ],
      [
        "ç»",
        "´"
      ],
      [
        "ç§",
        "¯"
      ],
      [
        "è¯",
        "¥"
      ],
      [
        "çİ",
        "ĩ"
      ],
      [
        "è",
        "¨"
      ],
      [
        "æł",
        "¹"
      ],
      [
        "è¯",
        "Ĩ"
      ],
      [
        "åı",
        "Ĥ"
      ],
      [
        "å°±",
        "æĺ¯"
      ],
      [
        "éĢļ",
        "è¿ĩ"
      ],
      [
        "å¤",
        "į"
      ],
      [
        "å¸",
        "ĥ"
      ],
      [
        "ä»",
        "Ĭ"
      ],
      [
        "å®",
        "¢"
      ],
      [
        "èĩ",
        "´"
      ],
      [
        "éĢ",
        "Ł"
      ],
      [
        "è",
        "ı"
      ],
      [
        "æ",
        "Ĥ£"
      ],
      [
        "åĨ",
        "į"
      ],
      [
        "éĩį",
        "è¦ģ"
      ],
      [
        "ä¸ĵ",
        "ä¸ļ"
      ],
      [
        "å¿",
        "«"
      ],
      [
        "æĸ",
        "¯"
      ],
      [
        "è®",
        "®"
      ],
      [
        "å",
        "Ħ"
      ],
      [
        "æĢ",
        "ģ"
      ],
      [
        "æŀ",
        "ģ"
      ],
      [
        "éª",
        "Į"
      ],
      [
        "å¿",
        "ħ"
      ],
      [
        "è´",
        "£"
      ],
      [
        "åį",
        "ĩ"
      ],
      [
        "åį",
        "İ"
      ],
      [
        "åĿ",
        "ļ"
      ],
      [
        "æŁ",
        "¥"
      ],
      [
        "è½",
        "¬"
      ],
      [
        "è®",
        "º"
      ],
      [
        "Ġ",
        ","
      ],
      [
        "ç»",
        "Ń"
      ],
      [
        "ç",
        "ı"
      ],
      [
        "çĶŁ",
        "æ´»"
      ],
      [
        "åİ",
        "Ĩ"
      ],
      [
        "æĸ",
        "Ń"
      ],
      [
        "æ",
        "Ĥ"
      ],
      [
        "èĬ",
        "±"
      ],
      [
        "å",
        "¡"
      ],
      [
        "è¶",
        "Ĭ"
      ],
      [
        "çłĶ",
        "ç©¶"
      ],
      [
        "å¦Ĥ",
        "æŀľ"
      ],
      [
        "åĳ",
        "½"
      ],
      [
        "éĻ",
        "Ĳ"
      ],
      [
        "è¶",
        "³"
      ],
      [
        "ä¸»",
        "è¦ģ"
      ],
      [
        "æİ",
        "§"
      ],
      [
        "åı",
        "į"
      ],
      [
        "è§",
        "ģ"
      ],
      [
        "åģ",
        "¥"
      ],
      [
        "1",
        "0"
      ],
      [
        "åĵ",
        "į"
      ],
      [
        "æ",
        "ħ"
      ],
      [
        "æ",
        "¹"
      ],
      [
        "åĨ",
        "µ"
      ],
      [
        "æ¨",
        "¡"
      ],
      [
        "å®ī",
        "åħ¨"
      ],
      [
        "è¯",
        "Ŀ"
      ],
      [
        "æĹ¶",
        "éĹ´"
      ],
      [
        "é",
        "Ł"
      ],
      [
        "çĪ",
        "±"
      ],
      [
        "èĮ",
        "ĥ"
      ],
      [
        "å¾",
        "·"
      ],
      [
        "æ¸",
        "©"
      ],
      [
        "æĸĩ",
        "åĮĸ"
      ],
      [
        "æ£",
        "Ģ"
      ],
      [
        "ä¸",
        "Ķ"
      ],
      [
        "å¹",
        "²"
      ],
      [
        "æ¸",
        "¸"
      ],
      [
        "é¡¹",
        "çĽ®"
      ],
      [
        "ä½",
        "ķ"
      ],
      [
        "è¯",
        "ķ"
      ],
      [
        "ä»ĸ",
        "ä»¬"
      ],
      [
        "è",
        "ĳ"
      ],
      [
        "çļĦ",
        "äºº"
      ],
      [
        "ç",
        "¢"
      ],
      [
        "è¶",
        "ħ"
      ],
      [
        "éĢ",
        "Ĥ"
      ],
      [
        "åİ",
        "ĭ"
      ],
      [
        "ç",
        "ĭ"
      ],
      [
        "æĿ",
        "ĥ"
      ],
      [
        "èī",
        "º"
      ],
      [
        "å·¥",
        "ç¨ĭ"
      ],
      [
        "è",
        "ŀ"
      ],
      [
        "é¦",
        "ĸ"
      ],
      [
        "å·",
        "ŀ"
      ],
      [
        "åĨ",
        "ľ"
      ],
      [
        "åĢ",
        "¼"
      ],
      [
        "éĩ",
        "ĩ"
      ],
      [
        "åŃ",
        "Ĺ"
      ],
      [
        "åĨ",
        "Ľ"
      ],
      [
        "æĸ¹",
        "éĿ¢"
      ],
      [
        "éļ",
        "¾"
      ],
      [
        "èİ",
        "·"
      ],
      [
        "åŁ",
        "Ł"
      ],
      [
        "åĪ",
        "Ļ"
      ],
      [
        "ç§",
        "°"
      ],
      [
        "ç»",
        "ĩ"
      ],
      [
        "åĬ",
        "¿"
      ],
      [
        "ä»",
        "Ģ"
      ],
      [
        "å§",
        "ĭ"
      ],
      [
        "ç",
        "ª"
      ],
      [
        "åº",
        "·"
      ],
      [
        "åĦ",
        "¿"
      ],
      [
        "æ²",
        "¹"
      ],
      [
        "æİ",
        "Ĵ"
      ],
      [
        "è¿Ļ",
        "ä¸ª"
      ],
      [
        "åĳ",
        "Ĭ"
      ],
      [
        "åı",
        "Ī"
      ],
      [
        "æ¡",
        "Ī"
      ],
      [
        "æ²»",
        "çĸĹ"
      ],
      [
        "åı",
        "²"
      ],
      [
        "æµ",
        "ĭ"
      ],
      [
        "æľ",
        "ª"
      ],
      [
        "åħ",
        "ĭ"
      ],
      [
        "åŃ",
        "ĺ"
      ],
      [
        "âĢĿ",
        ","
      ],
      [
        "éħ",
        "į"
      ],
      [
        "çĬ",
        "¶"
      ],
      [
        "è®¾",
        "è®¡"
      ],
      [
        "è¡Į",
        "ä¸ļ"
      ],
      [
        "æ±",
        "Ł"
      ],
      [
        "ä¸",
        "¥"
      ],
      [
        "åŁ",
        "¹"
      ],
      [
        "éĻ",
        "¤"
      ],
      [
        "åĳ",
        "¨"
      ],
      [
        "åı¯",
        "èĥ½"
      ],
      [
        "æĺ",
        "¾"
      ],
      [
        "çļ",
        "®"
      ],
      [
        "ä¼",
        "Ĺ"
      ],
      [
        "æıĲ",
        "ä¾Ľ"
      ],
      [
        "è¡",
        "Ģ"
      ],
      [
        "è¦ģ",
        "æ±Ĥ"
      ],
      [
        "åħ·",
        "æľī"
      ],
      [
        "è´¨",
        "éĩı"
      ],
      [
        "åĪ",
        "ĩ"
      ],
      [
        "ä¸ĸ",
        "çķĮ"
      ],
      [
        "æĪ",
        "¿"
      ],
      [
        "å½±",
        "åĵį"
      ],
      [
        "1",
        "9"
      ],
      [
        "å¥½",
        "çļĦ"
      ],
      [
        "äºº",
        "æ°ĳ"
      ],
      [
        "åĢ",
        "Ļ"
      ],
      [
        "æľ",
        "Ľ"
      ],
      [
        "âĢ",
        "Ķ"
      ],
      [
        "ä¾",
        "¿"
      ],
      [
        "ä»Ģ",
        "ä¹Ī"
      ],
      [
        "ç³»",
        "ç»Ł"
      ],
      [
        "åĪ",
        "Ĵ"
      ],
      [
        "ä¹",
        "Ĳ"
      ],
      [
        "çī",
        "ĩ"
      ],
      [
        "åŃ¦",
        "çĶŁ"
      ],
      [
        "é©",
        "¬"
      ],
      [
        "åĲĮ",
        "æĹ¶"
      ],
      [
        "çİ¯",
        "å¢ĥ"
      ],
      [
        "åį",
        "ı"
      ],
      [
        "ç±",
        "³"
      ],
      [
        "ç«",
        "Ļ"
      ],
      [
        "ç»",
        "Ĩ"
      ],
      [
        "èĲ",
        "½"
      ],
      [
        "å¥",
        "¹"
      ],
      [
        "å±",
        "Ĥ"
      ],
      [
        "æĥħ",
        "åĨµ"
      ],
      [
        "åĽł",
        "ä¸º"
      ],
      [
        "çģ",
        "«"
      ],
      [
        "åľ",
        "Ł"
      ],
      [
        "åŃ¦",
        "ä¹ł"
      ],
      [
        "æīĢ",
        "ä»¥"
      ],
      [
        "çº",
        "¦"
      ],
      [
        "äº",
        "¬"
      ],
      [
        "é",
        "¾"
      ],
      [
        "æ´»",
        "åĬ¨"
      ],
      [
        "ç",
        "Į"
      ],
      [
        "äº§",
        "ä¸ļ"
      ],
      [
        "éĻ",
        "į"
      ],
      [
        "éĿ",
        "Ĵ"
      ],
      [
        "å°",
        "Ķ"
      ],
      [
        "èŀ",
        "į"
      ],
      [
        "åĩ",
        "ł"
      ],
      [
        "çĽ",
        "ĳ"
      ],
      [
        "æ",
        "Ĵ"
      ],
      [
        "æ",
        "ļ"
      ],
      [
        "èĥ½",
        "åĬĽ"
      ],
      [
        "ç»Ħ",
        "ç»ĩ"
      ],
      [
        "èµ",
        "°"
      ],
      [
        "å£",
        "«"
      ],
      [
        "çŁ",
        "³"
      ],
      [
        "éĶ",
        "Ģ"
      ],
      [
        "ãĢĤ",
        "âĢĿ"
      ],
      [
        "åĪĽ",
        "æĸ°"
      ],
      [
        "æĿ",
        "ĳ"
      ],
      [
        "è±",
        "¡"
      ],
      [
        "åį",
        "³"
      ],
      [
        "è®¾",
        "å¤ĩ"
      ],
      [
        "çħ",
        "§"
      ],
      [
        "ç¦",
        "»"
      ],
      [
        "æĤ£",
        "èĢħ"
      ],
      [
        "å±",
        "ŀ"
      ],
      [
        "æıĲ",
        "é«ĺ"
      ],
      [
        "æĺ¯",
        "ä¸Ģ"
      ],
      [
        "æ»",
        "¡"
      ],
      [
        "éļ",
        "ı"
      ],
      [
        "ä»¥",
        "åıĬ"
      ],
      [
        "åħ",
        "ħ"
      ],
      [
        "å¤",
        "±"
      ],
      [
        "çī",
        "Į"
      ],
      [
        "æ",
        "¥"
      ],
      [
        "æ®",
        "µ"
      ],
      [
        "çĽ",
        "Ĭ"
      ],
      [
        "æł",
        "¸"
      ],
      [
        "æ",
        "ĳ"
      ],
      [
        "æ¼",
        "Ķ"
      ],
      [
        "å¼",
        "ł"
      ],
      [
        "æī",
        "¿"
      ],
      [
        "å¾",
        "Ģ"
      ],
      [
        "éĿ",
        "©"
      ],
      [
        "ä»",
        "ħ"
      ],
      [
        "åĸ",
        "Ħ"
      ],
      [
        "çº",
        "¢"
      ],
      [
        "èī",
        "¯"
      ],
      [
        "çļĦ",
        "ä¸Ģ"
      ],
      [
        "å",
        "¨"
      ],
      [
        "åĪ",
        "Ĺ"
      ],
      [
        "æĿ",
        "¿"
      ],
      [
        "åħ",
        "į"
      ],
      [
        "åº",
        "ľ"
      ],
      [
        "ä½ľ",
        "ä¸º"
      ],
      [
        "å¯",
        "Į"
      ],
      [
        "ä¿¡",
        "æģ¯"
      ],
      [
        "å",
        "ĥ"
      ],
      [
        "å¤",
        "ª"
      ],
      [
        "å®",
        "¤"
      ],
      [
        "ç½",
        "®"
      ],
      [
        "å¤§",
        "çļĦ"
      ],
      [
        "äºº",
        "åĳĺ"
      ],
      [
        "ä¾",
        "ĭ"
      ],
      [
        "çĻ",
        "¾"
      ],
      [
        "é¢",
        "Ħ"
      ],
      [
        "æŀ",
        "Ĺ"
      ],
      [
        "ä¸į",
        "åĲĮ"
      ],
      [
        "åĽ",
        "Ń"
      ],
      [
        "æ",
        "ĵ"
      ],
      [
        "çİ",
        "ĭ"
      ],
      [
        "ä¾",
        "Ŀ"
      ],
      [
        "å¿",
        "Ĺ"
      ],
      [
        "æ",
        "¿"
      ],
      [
        "æĻ",
        "¯"
      ],
      [
        "äº",
        "¿"
      ],
      [
        "ä¸Ń",
        "å¿ĥ"
      ],
      [
        "çŃ",
        "ĸ"
      ],
      [
        "æĻ",
        "º"
      ],
      [
        "å¤",
        "Ł"
      ],
      [
        "åŃ¦",
        "æł¡"
      ],
      [
        "é",
        "Ĥ"
      ],
      [
        "è¯",
        "Ħ"
      ],
      [
        "è¿Ļ",
        "æł·"
      ],
      [
        "å¾Ī",
        "å¤ļ"
      ],
      [
        "äº",
        "ļ"
      ],
      [
        "åŃ",
        "©"
      ],
      [
        "è¨",
        "Ģ"
      ],
      [
        "è´",
        "Ł"
      ],
      [
        "äºº",
        "çļĦ"
      ],
      [
        "ä½ľ",
        "çĶ¨"
      ],
      [
        "åĩ",
        "ı"
      ],
      [
        "ä¸Ń",
        "çļĦ"
      ],
      [
        "æĪĲ",
        "ä¸º"
      ],
      [
        "äº",
        "ī"
      ],
      [
        "å",
        "ł"
      ],
      [
        "ç²¾",
        "ç¥ŀ"
      ],
      [
        "åĽ",
        "´"
      ],
      [
        "åĽ½",
        "éĻħ"
      ],
      [
        "ä¿",
        "®"
      ],
      [
        "åĽ",
        "¾"
      ],
      [
        "éĻ",
        "©"
      ],
      [
        "è®",
        "¸"
      ],
      [
        "ä½",
        "ı"
      ],
      [
        "æ",
        "Ĳ"
      ],
      [
        "å¿",
        "µ"
      ],
      [
        "æ²",
        "³"
      ],
      [
        "åı",
        "·"
      ],
      [
        "åı",
        "ĭ"
      ],
      [
        "ä¹Ł",
        "æĺ¯"
      ],
      [
        "è¿",
        "ŀ"
      ],
      [
        "æĹ",
        "©"
      ],
      [
        "éĿŀ",
        "å¸¸"
      ],
      [
        "æĭ",
        "©"
      ],
      [
        "åĩº",
        "çİ°"
      ],
      [
        "ç¾",
        "¤"
      ],
      [
        "éĺ",
        "³"
      ],
      [
        "åĲ",
        "«"
      ],
      [
        "åı",
        "¤"
      ],
      [
        "æĮ",
        "ī"
      ],
      [
        "é»",
        "Ħ"
      ],
      [
        "æĶ¿",
        "åºľ"
      ],
      [
        "å¾",
        "ĭ"
      ],
      [
        "ä»",
        "½"
      ],
      [
        "è¿Ļ",
        "äºĽ"
      ],
      [
        "æĻ",
        "®"
      ],
      [
        "è¿",
        "ľ"
      ],
      [
        "ç§ĳ",
        "åŃ¦"
      ],
      [
        "åı",
        "Į"
      ],
      [
        "ç»",
        "Ī"
      ],
      [
        "éħ",
        "Ĵ"
      ],
      [
        "åħ¨",
        "åĽ½"
      ],
      [
        "åĲ",
        "ĥ"
      ],
      [
        "å¤Ħ",
        "çĲĨ"
      ],
      [
        "åİ",
        "¿"
      ],
      [
        "ä¸Ģ",
        "å®ļ"
      ],
      [
        "å·²",
        "ç»ı"
      ],
      [
        "âĢĿ",
        "ãĢĤ"
      ],
      [
        "ç®",
        "Ĺ"
      ],
      [
        "åĿ",
        "ĩ"
      ],
      [
        "ç§ĳ",
        "æĬĢ"
      ],
      [
        "ä¸Ģ",
        "äºĽ"
      ],
      [
        "ç¬¬",
        "ä¸Ģ"
      ],
      [
        "å®ŀ",
        "çİ°"
      ],
      [
        "åģ¥",
        "åº·"
      ],
      [
        "æĭ",
        "ī"
      ],
      [
        "çĽ¸",
        "åħ³"
      ],
      [
        "è",
        "ª"
      ],
      [
        "å¯",
        "Ĩ"
      ],
      [
        "éĢī",
        "æĭ©"
      ],
      [
        "çĹ",
        "ĩ"
      ],
      [
        "åĲĪ",
        "ä½ľ"
      ],
      [
        "è´",
        "¢"
      ],
      [
        "èĪ",
        "¬"
      ],
      [
        "èĤ",
        "¡"
      ],
      [
        "è®",
        "²"
      ],
      [
        "è§",
        "Ĵ"
      ],
      [
        "æ¿",
        "Ģ"
      ],
      [
        "å¯¹",
        "äºİ"
      ],
      [
        "ç",
        "Ĩ"
      ],
      [
        "äº",
        "Ĵ"
      ],
      [
        "åħ",
        "´"
      ],
      [
        "è§",
        "ī"
      ],
      [
        "æĿĲ",
        "æĸĻ"
      ],
      [
        "å¤§",
        "åŃ¦"
      ],
      [
        "æĿ",
        "İ"
      ],
      [
        "å®",
        "³"
      ],
      [
        "æĹ¶",
        "åĢĻ"
      ],
      [
        "ä¸į",
        "æĺ¯"
      ],
      [
        "éĴ",
        "¢"
      ],
      [
        "è¯",
        "Ń"
      ],
      [
        "ä½Ĩ",
        "æĺ¯"
      ],
      [
        "è®",
        "Ń"
      ],
      [
        "æĹ",
        "ı"
      ],
      [
        "èĩªå·±",
        "çļĦ"
      ],
      [
        "è¯",
        "·"
      ],
      [
        "åĽł",
        "æŃ¤"
      ],
      [
        "è¿ĩ",
        "ç¨ĭ"
      ],
      [
        "çĽ®",
        "åīį"
      ],
      [
        "éĵ",
        "¶"
      ],
      [
        "æľ",
        "¨"
      ],
      [
        "åĲ",
        "¸"
      ],
      [
        "åħ¶",
        "ä»ĸ"
      ],
      [
        "åĥ",
        "ı"
      ],
      [
        "æĬķ",
        "èµĦ"
      ],
      [
        "åĪ",
        "Ŀ"
      ],
      [
        "æķ",
        "ħ"
      ],
      [
        "1",
        "2"
      ],
      [
        "æŁ",
        "ĵ"
      ],
      [
        "ç¡",
        "Ģ"
      ],
      [
        "ä¸į",
        "æĸŃ"
      ],
      [
        "æł¹",
        "æį®"
      ],
      [
        "åŁº",
        "ç¡Ģ"
      ],
      [
        "åĶ",
        "®"
      ],
      [
        "å¾",
        "®"
      ],
      [
        "åıĳ",
        "çĶŁ"
      ],
      [
        "ä»¥",
        "ä¸Ĭ"
      ],
      [
        "çŃ",
        "ĳ"
      ],
      [
        "é¡",
        "»"
      ],
      [
        "åŁİ",
        "å¸Ĥ"
      ],
      [
        "æī",
        "¹"
      ],
      [
        "å",
        "Ĥ"
      ],
      [
        "åŃ©",
        "åŃĲ"
      ],
      [
        "åĪ°",
        "äºĨ"
      ],
      [
        "ä¸į",
        "èĥ½"
      ],
      [
        "ç",
        "ĵ"
      ],
      [
        "çľ",
        "¼"
      ],
      [
        "æłĩ",
        "åĩĨ"
      ],
      [
        "èĭ",
        "±"
      ],
      [
        "ç¨",
        "³"
      ],
      [
        "éħ",
        "¸"
      ],
      [
        "æĸ¹",
        "å¼ı"
      ],
      [
        "è½",
        "»"
      ],
      [
        "éŁ",
        "³"
      ],
      [
        "ç¦",
        "ı"
      ],
      [
        "åħ¶",
        "ä¸Ń"
      ],
      [
        "å¤§",
        "å®¶"
      ],
      [
        "åŃ",
        "£"
      ],
      [
        "æ¬",
        "¾"
      ],
      [
        "æ",
        "¤"
      ],
      [
        "å",
        "©"
      ],
      [
        "è",
        "Ń"
      ],
      [
        "ä¸",
        "¾"
      ],
      [
        "éĥ¨",
        "åĪĨ"
      ],
      [
        "çĸ",
        "«"
      ],
      [
        "è",
        "Ĵ"
      ],
      [
        "é¦",
        "Ļ"
      ],
      [
        "åĮ»",
        "éĻ¢"
      ],
      [
        "è¡¨",
        "ç¤º"
      ],
      [
        "åºĶ",
        "çĶ¨"
      ],
      [
        "Ġ",
        "ãĢĤ"
      ],
      [
        "å°",
        "½"
      ],
      [
        "è¾",
        "¹"
      ],
      [
        "åī",
        "¯"
      ],
      [
        "æŃ",
        "¢"
      ],
      [
        "çĶ",
        "·"
      ],
      [
        "åĳ",
        "³"
      ],
      [
        "è",
        "Ĩ"
      ],
      [
        "åįķ",
        "ä½į"
      ],
      [
        "çļĦ",
        "æĺ¯"
      ],
      [
        "ä»",
        "ĭ"
      ],
      [
        "éļ",
        "ľ"
      ],
      [
        "å±",
        "ħ"
      ],
      [
        "éĵ",
        "ģ"
      ],
      [
        "æĭ",
        "¬"
      ],
      [
        "æĸ¹",
        "æ³ķ"
      ],
      [
        "åī",
        "Ĥ"
      ],
      [
        "ä¸»",
        "ä¹ī"
      ],
      [
        "1",
        "1"
      ],
      [
        "æľī",
        "éĻĲ"
      ],
      [
        "åİ",
        "Ĥ"
      ],
      [
        "20",
        "0"
      ],
      [
        "éĥ¨",
        "éĹ¨"
      ],
      [
        "èĥ½",
        "å¤Ł"
      ],
      [
        "çĻ½",
        "çĻ"
      ],
      [
        "ľ",
        "é£İ"
      ],
      [
        "æķ°",
        "æį®"
      ],
      [
        "åº",
        "ķ"
      ],
      [
        "ç",
        "£"
      ],
      [
        "æĬ",
        "Ĺ"
      ],
      [
        "åį",
        "Ĭ"
      ],
      [
        "ä¸Ģ",
        "èĪ¬"
      ],
      [
        "èµĦ",
        "æºĲ"
      ],
      [
        "å¸",
        "Į"
      ],
      [
        "å¼Ģ",
        "å§ĭ"
      ],
      [
        "çĻ½çĻ",
        "ľé£İ"
      ],
      [
        "éĥ½",
        "æĺ¯"
      ],
      [
        "çķ",
        "¥"
      ],
      [
        "åħ¨",
        "éĿ¢"
      ],
      [
        "æ±",
        "½"
      ],
      [
        "å®",
        "Ŀ"
      ],
      [
        "åİĨ",
        "åı²"
      ],
      [
        "çł",
        "´"
      ],
      [
        "çª",
        "ģ"
      ],
      [
        "æ",
        "½"
      ],
      [
        "å®",
        "ĺ"
      ],
      [
        "çı",
        "Ń"
      ],
      [
        "é¾",
        "Ļ"
      ],
      [
        "çº",
        "ª"
      ],
      [
        "èģ",
        "ļ"
      ],
      [
        "ç®",
        "Ģ"
      ],
      [
        "éĽĨ",
        "åĽ¢"
      ],
      [
        "åħ",
        "«"
      ],
      [
        "å»º",
        "çŃĳ"
      ],
      [
        "åį",
        "«"
      ],
      [
        "æ¶",
        "²"
      ],
      [
        "å®",
        "¡"
      ],
      [
        "åĮħ",
        "æĭ¬"
      ],
      [
        "è¡",
        "¥"
      ],
      [
        "é",
        "²"
      ],
      [
        "å·¥",
        "ä¸ļ"
      ],
      [
        "æľº",
        "æŀĦ"
      ],
      [
        ":",
        "âĢľ"
      ],
      [
        "ç",
        "ĩ"
      ],
      [
        "è¿Ļ",
        "ç§į"
      ],
      [
        "å¥",
        "ĸ"
      ],
      [
        "åĸ",
        "ľ"
      ],
      [
        "æ°´",
        "å¹³"
      ],
      [
        "ä¿",
        "ĥ"
      ],
      [
        "å®",
        "£"
      ],
      [
        "è¾",
        "ĵ"
      ],
      [
        "ä¼",
        "¤"
      ],
      [
        "å£",
        "°"
      ],
      [
        "ä»£",
        "è¡¨"
      ],
      [
        "ç½",
        "Ĺ"
      ],
      [
        "å¼Ģ",
        "å±ķ"
      ],
      [
        "äº",
        "²"
      ],
      [
        "çĶ±",
        "äºİ"
      ],
      [
        "æĭ",
        "ħ"
      ],
      [
        "è",
        "Ĺ"
      ],
      [
        "åį",
        "´"
      ],
      [
        "æĽ",
        "¾"
      ],
      [
        "åĬŁ",
        "èĥ½"
      ],
      [
        "æ³¨",
        "æĦı"
      ],
      [
        "è¯",
        "¾"
      ],
      [
        "æĪĳ",
        "åĽ½"
      ],
      [
        "ç§¯",
        "æŀģ"
      ],
      [
        "èİ·",
        "å¾Ĺ"
      ],
      [
        "å¿ħ",
        "é¡»"
      ],
      [
        "ç¼",
        "º"
      ],
      [
        "åĨ",
        "·"
      ],
      [
        "åĿļ",
        "æĮģ"
      ],
      [
        "ç¾İ",
        "åĽ½"
      ],
      [
        "æĺ",
        "Ł"
      ],
      [
        "åį",
        "°"
      ],
      [
        "åı",
        "¦"
      ],
      [
        "åĮĹ",
        "äº¬"
      ],
      [
        "1",
        "5"
      ],
      [
        "æŀ",
        "Ĳ"
      ],
      [
        "çİ°",
        "åľ¨"
      ],
      [
        "çĸ",
        "¾"
      ],
      [
        "æĪĸ",
        "èĢħ"
      ],
      [
        "é¢Ĩ",
        "åŁŁ"
      ],
      [
        "é¢Ĩ",
        "å¯¼"
      ],
      [
        "å·",
        "´"
      ],
      [
        "åį",
        "ļ"
      ],
      [
        "æ¯",
        "Ĵ"
      ],
      [
        "åľ°",
        "åĮº"
      ],
      [
        "çĶ",
        "»"
      ],
      [
        "åī",
        "§"
      ],
      [
        "å·",
        "®"
      ],
      [
        "æī",
        "§"
      ],
      [
        "å¸",
        "®"
      ],
      [
        "ç",
        "¿"
      ],
      [
        "æ±",
        "¡"
      ],
      [
        "ä¸Ģ",
        "æŃ¥"
      ],
      [
        "ä¿Ŀ",
        "æĬ¤"
      ],
      [
        "3",
        "0"
      ],
      [
        "é",
        "Ĩ"
      ],
      [
        "æĹ",
        "ħ"
      ],
      [
        "åħ",
        "Ń"
      ],
      [
        "çķ",
        "Ļ"
      ],
      [
        "ç»ĵ",
        "æŀĦ"
      ],
      [
        "é",
        "¸"
      ],
      [
        "äº",
        "ĳ"
      ],
      [
        "ç»",
        "¼"
      ],
      [
        "åĬ",
        "³"
      ],
      [
        "æĺ",
        "¥"
      ],
      [
        "çĭ",
        "¬"
      ],
      [
        "å¢ŀ",
        "éķ¿"
      ],
      [
        "ä¸",
        "´"
      ],
      [
        "åĬł",
        "å¼º"
      ],
      [
        "ç»",
        "§"
      ],
      [
        "è´",
        "Ń"
      ],
      [
        "20",
        "2"
      ],
      [
        "äºĨ",
        "è§£"
      ],
      [
        "å¢ŀ",
        "åĬł"
      ],
      [
        "æ¸",
        "¯"
      ],
      [
        "åĽ",
        "º"
      ],
      [
        "æİ§",
        "åĪ¶"
      ],
      [
        "é»",
        "ĳ"
      ],
      [
        "æ¯Ķ",
        "è¾ĥ"
      ],
      [
        "æıĲ",
        "åįĩ"
      ],
      [
        "å®¢",
        "æĪ·"
      ],
      [
        "ç´",
        "§"
      ],
      [
        "ä½",
        "Ļ"
      ],
      [
        "æ¹",
        "ĸ"
      ],
      [
        "éĢ",
        "ģ"
      ],
      [
        "é¥",
        "®"
      ],
      [
        "è´",
        "§"
      ],
      [
        "è§Ħ",
        "å®ļ"
      ],
      [
        "å®Į",
        "æĪĲ"
      ],
      [
        "ç¨",
        "İ"
      ],
      [
        "å½¢",
        "æĪĲ"
      ],
      [
        "çĶ",
        "³"
      ],
      [
        "æĹ¶",
        "ä»£"
      ],
      [
        "åħ³",
        "ç³»"
      ],
      [
        "å¾",
        "ħ"
      ],
      [
        "å¼",
        "Ĥ"
      ],
      [
        "æĶ¹",
        "éĿ©"
      ],
      [
        "é",
        "º"
      ],
      [
        "åį",
        "ĥ"
      ],
      [
        "ç¬¬",
        "äºĮ"
      ],
      [
        "æ",
        "¦"
      ],
      [
        "çİ°",
        "ä»£"
      ],
      [
        "èĳ",
        "Ĺ"
      ],
      [
        "ä¹",
        "¡"
      ],
      [
        "åį",
        "ł"
      ],
      [
        "èĢ",
        "Ĳ"
      ],
      [
        "ç",
        "¯"
      ],
      [
        "è¿ĺ",
        "æĺ¯"
      ],
      [
        "ä¸",
        "°"
      ],
      [
        "å¹´",
        "çļĦ"
      ],
      [
        "éĤ£",
        "ä¹Ī"
      ],
      [
        "æľīéĻĲ",
        "åħ¬åı¸"
      ],
      [
        "æĶ¿",
        "æ²»"
      ],
      [
        "ä¸į",
        "ä¼ļ"
      ],
      [
        "æŃ",
        "¦"
      ],
      [
        "ç«",
        "ŀ"
      ],
      [
        "åĵģ",
        "çīĮ"
      ],
      [
        "æĶ¿",
        "çŃĸ"
      ],
      [
        "éķ",
        "ĩ"
      ],
      [
        "çĤ",
        "İ"
      ],
      [
        "Ġ",
        "ãĢģ"
      ],
      [
        "è´£",
        "ä»»"
      ],
      [
        "åıĳ",
        "çİ°"
      ],
      [
        "å¹³",
        "åı°"
      ],
      [
        "æ¬",
        "¢"
      ],
      [
        "åĪĨ",
        "æŀĲ"
      ],
      [
        "ä¸Ĭ",
        "çļĦ"
      ],
      [
        "åį",
        "¡"
      ],
      [
        "åĪ",
        "»"
      ],
      [
        "çº",
        "³"
      ],
      [
        "ç»",
        "¿"
      ],
      [
        "åŁº",
        "æľ¬"
      ],
      [
        "åº",
        "Ĺ"
      ],
      [
        "èĢĮ",
        "ä¸Ķ"
      ],
      [
        "æį",
        "Ł"
      ],
      [
        "æľī",
        "æķĪ"
      ],
      [
        "å¤",
        "®"
      ],
      [
        "ä¸ª",
        "äºº"
      ],
      [
        "åĲĦ",
        "ç§į"
      ],
      [
        "åı",
        "¥"
      ],
      [
        "æ³",
        "¢"
      ],
      [
        "åº",
        "§"
      ],
      [
        "å¸Į",
        "æľĽ"
      ],
      [
        "åĩ",
        "»"
      ],
      [
        "æĸ°",
        "çļĦ"
      ],
      [
        "å¯¼",
        "èĩ´"
      ],
      [
        "æĮ",
        "¥"
      ],
      [
        "äº§",
        "çĶŁ"
      ],
      [
        "æŁ",
        "Ĳ"
      ],
      [
        "éģ",
        "¿"
      ],
      [
        "åĨħ",
        "å®¹"
      ],
      [
        "é¢",
        "Ŀ"
      ],
      [
        "éľĢ",
        "æ±Ĥ"
      ],
      [
        "é",
        "¼"
      ],
      [
        "è§£",
        "åĨ³"
      ],
      [
        "çŁ",
        "Ń"
      ],
      [
        "çĤ",
        "º"
      ],
      [
        "ç»¼",
        "åĲĪ"
      ],
      [
        "æ¯",
        "į"
      ],
      [
        "ç»",
        "Ŀ"
      ],
      [
        "ç»ı",
        "èĲ¥"
      ],
      [
        "ä¼ł",
        "ç»Ł"
      ],
      [
        "åħ",
        "°"
      ],
      [
        "è®¤",
        "ä¸º"
      ],
      [
        "æĢĿ",
        "æĥ³"
      ],
      [
        "åĽ½",
        "åĨħ"
      ],
      [
        "å¾",
        "ģ"
      ],
      [
        "æĿ¥",
        "çļĦ"
      ],
      [
        "èīº",
        "æľ¯"
      ],
      [
        "æĽ´",
        "åĬł"
      ],
      [
        "äºº",
        "æīį"
      ],
      [
        "åĲ",
        "¦"
      ],
      [
        "å¼Ģ",
        "åıĳ"
      ],
      [
        "åĪ©",
        "çĶ¨"
      ],
      [
        "ç»",
        "ľ"
      ],
      [
        "åĪ¶",
        "éĢł"
      ],
      [
        "ä½ĵ",
        "ç³»"
      ],
      [
        "éĺ",
        "¿"
      ],
      [
        "æī",
        "¾"
      ],
      [
        "èĥ",
        "ľ"
      ],
      [
        "éĴ",
        "Ł"
      ],
      [
        "é¢",
        "ĳ"
      ],
      [
        "åŃ¦",
        "éĻ¢"
      ],
      [
        "æ°",
        "§"
      ],
      [
        "çī",
        "Ī"
      ],
      [
        "çŁ¥",
        "è¯Ĩ"
      ],
      [
        "èĻ",
        "½"
      ],
      [
        "å®¹",
        "æĺĵ"
      ],
      [
        "èģĮ",
        "ä¸ļ"
      ],
      [
        "ä¸ļ",
        "åĬ¡"
      ],
      [
        "æ¬",
        "§"
      ],
      [
        "è¿Ļ",
        "ä¸Ģ"
      ],
      [
        "å¯",
        "Ł"
      ],
      [
        "ç§",
        "»"
      ],
      [
        "å²",
        "ģ"
      ],
      [
        "çĸ¾",
        "çĹħ"
      ],
      [
        "æ±½",
        "è½¦"
      ],
      [
        ",",
        "âĢľ"
      ],
      [
        "æĦ",
        "¿"
      ],
      [
        "èı",
        "ľ"
      ],
      [
        "äºĨ",
        "ä¸Ģ"
      ],
      [
        "åĨ",
        "ł"
      ],
      [
        "åĲ",
        "¬"
      ],
      [
        "å½",
        "ķ"
      ],
      [
        "éĢł",
        "æĪĲ"
      ],
      [
        "æŃ",
        "»"
      ],
      [
        "å®ŀ",
        "æĸ½"
      ],
      [
        "åĪ¶",
        "åº¦"
      ],
      [
        "ä¸º",
        "äºĨ"
      ],
      [
        "ç§",
        "Ģ"
      ],
      [
        "åŃĺ",
        "åľ¨"
      ],
      [
        "æł",
        "ĳ"
      ],
      [
        ")",
        ","
      ],
      [
        "ç¼",
        "ĸ"
      ],
      [
        "éĩĩ",
        "çĶ¨"
      ],
      [
        "ä¼ļ",
        "è®®"
      ],
      [
        "æİ¨",
        "è¿Ľ"
      ],
      [
        "æĭ",
        "¥"
      ],
      [
        "ä¿Ŀ",
        "æĮģ"
      ],
      [
        "ä¸į",
        "ä»ħ"
      ],
      [
        "æľī",
        "åħ³"
      ],
      [
        "åº",
        "Ń"
      ],
      [
        "æ¤",
        "į"
      ],
      [
        "ä»",
        "¤"
      ],
      [
        "æİ¨",
        "åĬ¨"
      ],
      [
        "èĩª",
        "çĦ¶"
      ],
      [
        "çī¹",
        "åĪ«"
      ],
      [
        "çļĦ",
        "æĹ¶åĢĻ"
      ],
      [
        "çĶ¨",
        "äºİ"
      ],
      [
        "éĩį",
        "çĤ¹"
      ],
      [
        "è¯",
        "»"
      ],
      [
        "æĶ¯",
        "æĮģ"
      ],
      [
        "æį",
        "¢"
      ],
      [
        "æ¶Ī",
        "è´¹"
      ],
      [
        "èĭ",
        "ı"
      ],
      [
        "åį",
        "±"
      ],
      [
        "æ±",
        "ī"
      ],
      [
        "ä¹ĭ",
        "åĲİ"
      ],
      [
        "å°",
        "Ħ"
      ],
      [
        "çī¹",
        "èī²"
      ],
      [
        "åĨ",
        "Ļ"
      ],
      [
        "åľ°",
        "æĸ¹"
      ],
      [
        "èĪ",
        "ª"
      ],
      [
        "åħļ",
        "çļĦ"
      ],
      [
        "åĵ",
        "ª"
      ],
      [
        "ä»",
        "ª"
      ],
      [
        "æīĢ",
        "æľī"
      ],
      [
        "æĴ",
        "Ń"
      ],
      [
        "éĢ",
        "Ĳ"
      ],
      [
        "çĮ",
        "®"
      ],
      [
        "çĶ",
        "²"
      ],
      [
        "å¦Ĥ",
        "ä½ķ"
      ],
      [
        "çŁ¥",
        "éģĵ"
      ],
      [
        "è¿",
        "°"
      ],
      [
        "æķĪ",
        "æŀľ"
      ],
      [
        "çĹ",
        "Ľ"
      ],
      [
        "é£Ł",
        "åĵģ"
      ],
      [
        "çĽ®",
        "æłĩ"
      ],
      [
        "åºĶ",
        "è¯¥"
      ],
      [
        "æķĻ",
        "åŃ¦"
      ],
      [
        "ä¹¦",
        "è®°"
      ],
      [
        "æĿ¡",
        "ä»¶"
      ],
      [
        "éģ",
        "ĩ"
      ],
      [
        "æĤ",
        "¨"
      ],
      [
        "åı",
        "³"
      ],
      [
        "çī",
        "Ľ"
      ],
      [
        "æĸ",
        "Ĺ"
      ],
      [
        "ç«",
        "ł"
      ],
      [
        "è¾¾",
        "åĪ°"
      ],
      [
        "å»º",
        "ç«ĭ"
      ],
      [
        "ãĢ",
        "Į"
      ],
      [
        "æ",
        "ĩ"
      ],
      [
        "Â",
        "·"
      ],
      [
        "1",
        "00"
      ],
      [
        "ä¸Ń",
        "å¤®"
      ],
      [
        "èį",
        "ī"
      ],
      [
        "è¿Ľ",
        "ä¸ĢæŃ¥"
      ],
      [
        "æ´",
        "²"
      ],
      [
        "ç½ĳ",
        "ç»ľ"
      ],
      [
        "è´Ł",
        "è´£"
      ],
      [
        "æľ",
        "ĥ"
      ],
      [
        "ç«",
        "¯"
      ],
      [
        "åĮ»",
        "çĸĹ"
      ],
      [
        "æĭ",
        "Ľ"
      ],
      [
        "è¿ĺ",
        "æľī"
      ],
      [
        "é",
        "¤"
      ],
      [
        "æ´",
        "Ĺ"
      ],
      [
        "ä¸Ĭ",
        "æµ·"
      ],
      [
        "å®ŀ",
        "éĻħ"
      ],
      [
        "äº¿",
        "åħĥ"
      ],
      [
        "èĮ",
        "¶"
      ],
      [
        "å¡",
        "ĳ"
      ],
      [
        "æĢ",
        "İ"
      ],
      [
        "ç²",
        "ī"
      ],
      [
        "åĩ",
        "Ģ"
      ],
      [
        "æĵ",
        "į"
      ],
      [
        "å·",
        "¦"
      ],
      [
        "çĶ",
        "ļ"
      ],
      [
        "è¯",
        "Ĭ"
      ],
      [
        "ãĢ",
        "į"
      ],
      [
        "ä¸į",
        "è¦ģ"
      ],
      [
        "âĢĶ",
        "âĢĶ"
      ],
      [
        "åº",
        "ı"
      ],
      [
        "ç»ĵ",
        "åĲĪ"
      ],
      [
        "ç»",
        "į"
      ],
      [
        "æĿ¥",
        "è¯´"
      ],
      [
        "åĬ",
        "ª"
      ],
      [
        "%",
        ","
      ],
      [
        "è",
        "Ľ"
      ],
      [
        "ä¹",
        "ħ"
      ],
      [
        "è¿Ĳ",
        "åĬ¨"
      ],
      [
        "æĪ",
        "ı"
      ],
      [
        "ä¹",
        "Ŀ"
      ],
      [
        "èº«",
        "ä½ĵ"
      ],
      [
        "ä»",
        "į"
      ],
      [
        "å®",
        "Ī"
      ],
      [
        "ä¿Ŀ",
        "éļľ"
      ],
      [
        "èĤ",
        "ī"
      ],
      [
        "è·",
        "µ"
      ],
      [
        "æıĲ",
        "åĩº"
      ],
      [
        "è½",
        "®"
      ],
      [
        "å",
        "³"
      ],
      [
        "è",
        "²"
      ],
      [
        "å°",
        "¼"
      ],
      [
        "æ¢",
        "¦"
      ],
      [
        "ç»",
        "ĥ"
      ],
      [
        "è¿Ļ",
        "æĺ¯"
      ],
      [
        "åĳ",
        "¢"
      ],
      [
        "å¤",
        "«"
      ],
      [
        "ä¸Ģ",
        "èµ·"
      ],
      [
        "ä»·",
        "æł¼"
      ],
      [
        "1",
        "8"
      ],
      [
        "åıĸ",
        "å¾Ĺ"
      ],
      [
        "åĽ",
        "°"
      ],
      [
        "5",
        "0"
      ],
      [
        "åİŁ",
        "åĽł"
      ],
      [
        "å½",
        "©"
      ],
      [
        "æ¢",
        "°"
      ],
      [
        "ä¼",
        "¼"
      ],
      [
        "åŁ¹",
        "åħ»"
      ],
      [
        "ä¸",
        "ĥ"
      ],
      [
        "ä¹ĭ",
        "ä¸Ģ"
      ],
      [
        "äºº",
        "ä»¬"
      ],
      [
        "é¡",
        "º"
      ],
      [
        "éĺ",
        "¶"
      ],
      [
        "å±",
        "Ĭ"
      ],
      [
        "ä»·",
        "åĢ¼"
      ],
      [
        "èĤ",
        "¤"
      ],
      [
        "èŃ",
        "¦"
      ],
      [
        "åŃ",
        "ķ"
      ],
      [
        "å¸®",
        "åĬ©"
      ],
      [
        "ä¹",
        "°"
      ],
      [
        "æĮģ",
        "ç»Ń"
      ],
      [
        "å",
        "ª"
      ],
      [
        "é",
        "ĸ"
      ],
      [
        "ä¼ĺ",
        "åĬ¿"
      ],
      [
        "é£",
        "ŀ"
      ],
      [
        "æİ",
        "Ī"
      ],
      [
        "æĪĺ",
        "çķ¥"
      ],
      [
        "é¦",
        "Ĩ"
      ],
      [
        "ä¿ĥ",
        "è¿Ľ"
      ],
      [
        "å¥",
        "Ĺ"
      ],
      [
        "æĢ",
        "¥"
      ],
      [
        "åŁ¹",
        "è®Ń"
      ],
      [
        "æĻ",
        "Ĥ"
      ],
      [
        "çĻ",
        "»"
      ],
      [
        "éĴ",
        "Ī"
      ],
      [
        "è",
        "ĸ"
      ],
      [
        "æķ",
        "£"
      ],
      [
        "ç",
        "Ĵ"
      ],
      [
        "éĩĳ",
        "èŀį"
      ],
      [
        "éĻ",
        "Ī"
      ],
      [
        "æ¯Ķ",
        "èµĽ"
      ],
      [
        "ç´",
        "¢"
      ],
      [
        "æİ",
        "ª"
      ],
      [
        "åĬª",
        "åĬĽ"
      ],
      [
        "åħ¨",
        "çĲĥ"
      ],
      [
        "è¿",
        "½"
      ],
      [
        "åħ",
        "¸"
      ],
      [
        "æķĻ",
        "å¸Ī"
      ],
      [
        "è·",
        "Ł"
      ],
      [
        "æĽ´",
        "å¤ļ"
      ],
      [
        "çĽ´",
        "æİ¥"
      ],
      [
        "æĭ¥",
        "æľī"
      ],
      [
        "éĿ",
        "ł"
      ],
      [
        "éĴ",
        "±"
      ],
      [
        "çĿ",
        "£"
      ],
      [
        "èĻ½",
        "çĦ¶"
      ],
      [
        "å®",
        "ģ"
      ],
      [
        "ç»",
        "©"
      ],
      [
        "éĢ",
        "ı"
      ],
      [
        "éĢ",
        "Ģ"
      ],
      [
        "åģ",
        "ľ"
      ],
      [
        "è",
        "ĵ"
      ],
      [
        "éĶĢ",
        "åĶ®"
      ],
      [
        "éļı",
        "çĿĢ"
      ],
      [
        "ç¨³",
        "å®ļ"
      ],
      [
        "è¿Ľ",
        "åħ¥"
      ],
      [
        "æĪĲ",
        "åĬŁ"
      ],
      [
        "ä»ĭ",
        "ç»į"
      ],
      [
        "åº",
        "Ĭ"
      ],
      [
        "å§Ķ",
        "åĳĺ"
      ],
      [
        "ç",
        "µ"
      ],
      [
        "æī",
        "©"
      ],
      [
        "æİ",
        "¢"
      ],
      [
        "æĻ",
        "ļ"
      ],
      [
        "è½",
        "¯"
      ],
      [
        "çĶŁ",
        "æĢģ"
      ],
      [
        "èĥ",
        "¶"
      ],
      [
        "èı",
        "Į"
      ],
      [
        "åıª",
        "æľī"
      ],
      [
        "é",
        "½"
      ],
      [
        "åĨ",
        "²"
      ],
      [
        "æħ",
        "¢"
      ],
      [
        "æ°ĳ",
        "æĹı"
      ],
      [
        "æĻº",
        "èĥ½"
      ],
      [
        "èĭ",
        "¦"
      ],
      [
        "äº",
        "Ī"
      ],
      [
        "æ£Ģ",
        "æŁ¥"
      ],
      [
        "å¸",
        "Ń"
      ],
      [
        "äºĭ",
        "ä¸ļ"
      ],
      [
        "åıĤ",
        "åĬł"
      ],
      [
        "è®¡",
        "åĪĴ"
      ],
      [
        "å»",
        "¶"
      ],
      [
        "1",
        "6"
      ],
      [
        "åıĬ",
        "æĹ¶"
      ],
      [
        "åħħ",
        "åĪĨ"
      ],
      [
        "çļĦ",
        "åıĳå±ķ"
      ],
      [
        "çĶµ",
        "åŃĲ"
      ],
      [
        "æĶ",
        "»"
      ],
      [
        "è´",
        "µ"
      ],
      [
        "åħ±",
        "åĲĮ"
      ],
      [
        "æ³",
        "Ľ"
      ],
      [
        "éĶ",
        "®"
      ],
      [
        "èį",
        "£"
      ],
      [
        "ä»",
        "ĺ"
      ],
      [
        "æī",
        "ĺ"
      ],
      [
        "åıĳ",
        "æĮ¥"
      ],
      [
        "éĶ",
        "Ļ"
      ],
      [
        "ä»»",
        "ä½ķ"
      ],
      [
        "åİ",
        "ļ"
      ],
      [
        "ä¹ĭ",
        "éĹ´"
      ],
      [
        "å¥",
        "ĩ"
      ],
      [
        "ä»Ĭ",
        "å¹´"
      ],
      [
        "è§Ħ",
        "åĪĴ"
      ],
      [
        "æĢ§",
        "èĥ½"
      ],
      [
        "æĬ¥",
        "åĳĬ"
      ],
      [
        "åĬł",
        "å·¥"
      ],
      [
        "ä¸Ģ",
        "çĽ´"
      ],
      [
        "çĶļ",
        "èĩ³"
      ],
      [
        "èĦ",
        "±"
      ],
      [
        "äº¤",
        "éĢļ"
      ],
      [
        "æĮī",
        "çħ§"
      ],
      [
        "æĢ§",
        "çļĦ"
      ],
      [
        "å¥",
        "ĭ"
      ],
      [
        "è¿ĩç¨ĭ",
        "ä¸Ń"
      ],
      [
        "é",
        "Ń"
      ],
      [
        "ç",
        "¶"
      ],
      [
        "å¾Ĺ",
        "åĪ°"
      ],
      [
        "çĨ",
        "Ł"
      ],
      [
        "åģ",
        "ĩ"
      ],
      [
        "éĽ",
        "¨"
      ],
      [
        "åº",
        "Ĩ"
      ],
      [
        "1",
        "4"
      ],
      [
        "åĪĨ",
        "éĴŁ"
      ],
      [
        "ç»§",
        "ç»Ń"
      ],
      [
        "æĪĲ",
        "æľ¬"
      ],
      [
        "éģ¿",
        "åħį"
      ],
      [
        "å¨",
        "ģ"
      ],
      [
        "èĲ½",
        "å®ŀ"
      ],
      [
        "çĶ¨",
        "æĪ·"
      ],
      [
        "è½",
        "½"
      ],
      [
        "å®Į",
        "åĸĦ"
      ],
      [
        "æĢ",
        "Ģ"
      ],
      [
        "æīį",
        "èĥ½"
      ],
      [
        "ä¸¥",
        "éĩį"
      ],
      [
        "çĪ",
        "¶"
      ],
      [
        "ä¹",
        "İ"
      ],
      [
        "äº",
        "«"
      ],
      [
        "èĹ",
        "ı"
      ],
      [
        "è¯",
        "ī"
      ],
      [
        "çģ",
        "µ"
      ],
      [
        "ç³»",
        "åĪĹ"
      ],
      [
        "åĪ",
        "ĺ"
      ],
      [
        "åıĳå±ķ",
        "çļĦ"
      ],
      [
        "å",
        "ĺ"
      ],
      [
        "ä½",
        "³"
      ],
      [
        "æĿ",
        "¾"
      ],
      [
        "ç¥",
        "¨"
      ],
      [
        "ç¦",
        "ģ"
      ],
      [
        "çĽ",
        "ĸ"
      ],
      [
        "ä¸°",
        "å¯Į"
      ],
      [
        "å®ŀ",
        "è·µ"
      ],
      [
        "èĨ",
        "ľ"
      ],
      [
        "è¶ħ",
        "è¿ĩ"
      ],
      [
        "éĢ",
        "Ļ"
      ],
      [
        "æ¯",
        "ķ"
      ],
      [
        "æĸ½",
        "å·¥"
      ],
      [
        "å¥",
        "¥"
      ],
      [
        "ä¸¤",
        "ä¸ª"
      ],
      [
        "æł¸",
        "å¿ĥ"
      ],
      [
        "éĻ",
        "Ħ"
      ],
      [
        "è",
        "³"
      ],
      [
        "æ",
        "©"
      ],
      [
        "æ¨¡",
        "å¼ı"
      ],
      [
        "è¡Į",
        "ä¸º"
      ],
      [
        "è§Ħ",
        "æ¨¡"
      ],
      [
        "åı",
        "¶"
      ],
      [
        "é²",
        "ľ"
      ],
      [
        "åĩı",
        "å°ĳ"
      ],
      [
        "æ¯",
        "Ľ"
      ],
      [
        "ç¤¾ä¼ļ",
        "ä¸»ä¹ī"
      ],
      [
        "ä¿Ŀ",
        "è¯ģ"
      ],
      [
        "1",
        "3"
      ],
      [
        "ç",
        "ĺ"
      ],
      [
        "æľ",
        "ĭ"
      ],
      [
        "åĿ",
        "Ĺ"
      ],
      [
        "æ",
        "¾"
      ],
      [
        "æ°",
        "¸"
      ],
      [
        "æĹħ",
        "æ¸¸"
      ],
      [
        "åº",
        "ĵ"
      ],
      [
        "èĦ",
        "ĳ"
      ],
      [
        "çĶŁ",
        "çī©"
      ],
      [
        "è¿",
        "İ"
      ],
      [
        "åĽł",
        "ç´ł"
      ],
      [
        "èĭ",
        "¥"
      ],
      [
        "ç¬¬",
        "ä¸ī"
      ],
      [
        "èĮĥ",
        "åĽ´"
      ],
      [
        "ä¸ĵ",
        "å®¶"
      ],
      [
        "æŃ",
        "Į"
      ],
      [
        "èĥ",
        "Į"
      ],
      [
        "å¼ķ",
        "èµ·"
      ],
      [
        "æľ",
        "Ŀ"
      ],
      [
        "çļ®",
        "èĤ¤"
      ],
      [
        "é",
        "ł"
      ],
      [
        "å®¶",
        "åºŃ"
      ],
      [
        "æ¶",
        "Ĥ"
      ],
      [
        "å°",
        "¤"
      ],
      [
        "çļĦ",
        "å¤§"
      ],
      [
        "è¯",
        "ļ"
      ],
      [
        "ä¸į",
        "åı¯"
      ],
      [
        "åıĤ",
        "ä¸İ"
      ],
      [
        "æĸ¹",
        "æ¡Ī"
      ],
      [
        "å®",
        "«"
      ],
      [
        "ä¸Ģ",
        "ç§į"
      ],
      [
        "%",
        "ãĢĤ"
      ],
      [
        "æĽ",
        "²"
      ],
      [
        "ä¼",
        "Ł"
      ],
      [
        "æ¥",
        "¼"
      ],
      [
        "ç»ı",
        "è¿ĩ"
      ],
      [
        "è®¸",
        "å¤ļ"
      ],
      [
[...]
